{"HiddenLayer":[0.00002896622881112957,0.0000011416509860355096,3.175195834449383e-11,2.1691485726384404e-12,0.0002056933630801443,0.0007284119486195516,0.014913790892288708,0.00003863577757808255,0.013460066681008909,0.000018384698913764823,1],"InputLayer":[0,0,0,0,0,0,0,1,0,1,0,0,0,1,0,0,0,0,0,0,0,0,0,0,0,1,0,0,0,0,0,0,0,0,0,0,0,1,0,0,0,0,0,0,0,0,0,0,1,1,1,0,0,0,1,0,1],"OutputLayer":[-0.004951998692320601,-0.01338994352475032,-0.017660248548002657,1.0360021907650736],"WeightHidden":[[-0.9353080413886398,-0.5914546931330462,-2.443611324786415,-0.5307791470900742,-2.269948297982867,-2.5935936429180546,-2.2209631629026623,-0.5611820574863897,-6.1037177623016925,-0.8037829085328501,-1.3495392065259335,0.2389610124906293,0.468745406224806,-0.2859213785376086,4.695826299175433,-1.0593101203231057,-0.5877273719508003,-1.614864201169972,-5.9860715871722405,2.434061399080674,-1.3910673639821876,-4.821589435219943,-2.0099617406358976,-1.320877124165798,-7.152604375812293,-0.6376090047041285,-0.6687851944259082,0.12348437297911326,0.2638874435848726,-0.49506009188028943,-2.033023222463176,0.42372128935055897,0.5650253045960077,0.3342157125660997,0.04234595262317452,0.11701160199480873,-0.17139626946133962,-0.2524622829297932,-0.1878673966549276,0.9552329737460612,0.15298469620414104,0.13010495775846515,-0.16392571282053742,0.384749303570521,0.041780277238118814,-0.3475748536549451,-0.3708514850062499,0.3251255089344901,0.2957634837586743,-0.31764004616436564,-0.11005959694865926,-0.1995638286530895,-0.5361437661181134,-0.07978326682168006,-0.08410041285250651,0.15688849940733815,-7.692433611650645],[-0.44349520548409893,-0.05667062051024502,2.9599421017730863,-5.997178267038064,-3.0480531878057087,-2.3064474387079064,-3.1713376987435975,-1.8060144788989787,2.850212295538528,-0.9134634636715916,2.876001789595386,1.0421013165976531,-0.414769670389955,1.3790437950983172,-0.9857730054501574,-6.327165078941938,-3.551447917684731,0.3822854529677859,-2.7930222593330254,-3.4711900117184684,-2.1145627295505345,4.109587049357787,-1.339724832881375,-3.471151008622583,0.7356233854044663,-4.699062019529343,-0.43248025647539723,-0.8550350266692172,0.5501351559205037,1.3920581240588867,-0.01605308575105814,0.36750969875187556,0.5147856468932931,0.5921445779863762,0.48447443603540585,0.3019840240281282,-0.1477935542781809,-0.2926435141093267,0.34898747837794014,1.1616682743085318,0.24717782573106442,0.019202886184968262,-0.13976975391271118,0.033867293714635295,0.312319001935851,0.5943460713898614,0.2970875785334412,0.11266746904606403,0.3862100066988021,-0.9072660642772796,0.02361285580003105,-0.08987983887440143,0.31036164210652106,0.3767669233120942,0.5283278231327619,0.03941972528316275,-7.3817788057746485],[-0.7341461954688875,2.7670993815282174,-1.8136793446483257,-3.998277041958802,-0.12454185622549567,0.3307535228008868,3.232647877443322,-3.324015738276808,-6.98822700737195,-5.601953967352766,-2.7646444026399175,-1.2328098383625408,-3.3803876136100337,-0.7950058246807116,-0.4543887557686927,1.7861131871137759,-0.052239405333463225,-0.7071757559238973,-4.92243265410268,-2.925330440466866,5.203680744623881,1.4515096323021093,0.6723662744282511,1.0275632504720666,-5.039403436607438,-6.351607451446056,1.910895496097939,-3.28506921984896,0.13996153528889432,0.6243490276627451,-1.464115270407975,0.3158441793298301,0.48642990507351247,0.8563527441800466,0.7909567531152398,0.5934682358398016,0.18035014730269008,-0.4252206911537722,-0.44186767346249567,0.03925002043327986,0.9545653836626791,1.3069548882858744,-0.2025835428741335,-0.5644124799556384,-0.14084572634866765,0.07403545304052865,-0.44460381858183495,0.2040756236633346,0.42829238101610395,0.054806960223888736,-0.14786392137603335,-0.10491075212063418,0.28266213827598774,-0.00974374874454025,-0.14628570701304744,0.04921120566734376,-7.8642127819041185],[-0.11456918467195398,-0.7426925329325736,-3.8447982083993923,-5.81981019997704,-0.05176602775342544,-5.796856650092265,-3.7015096288379503,-0.043028039998286784,1.9181261354137407,-6.8833510829842055,5.63966037657682,-2.321322644184539,0.21299889051121948,-4.437016931612628,-3.4303350732269853,1.6740392705253353,-3.955550168341885,-2.2858907120856307,-0.18348997873660852,-2.0994252518337886,-4.857042549231239,2.2543017723972882,4.089384990449868,-4.442177851676085,-4.532196522845381,-3.419358980384545,-2.0171081774508304,1.6851180996338848,0.2813395428778753,-0.9472086987483279,-1.955486681106594,0.8187413747547111,-1.0489340061810197,0.44593188898170444,-0.7515014793210125,0.031960348262302776,0.18096293668425373,-0.17914796531679192,-0.010335035260649248,-0.004637159855530846,0.007281735664055052,-0.7685094575623239,0.45929449629355734,-0.04792186789444408,-0.46620437087782324,-1.3124754380099328,-0.2548277898688965,-0.1106966239822469,0.3395969335168681,0.18716385938339244,-0.20086245406305833,-0.6732043860822308,0.3254271006650235,-0.46352995113832207,-0.36087717272194264,-0.2579074632773526,-11.859804554033955],[-0.35077307259465895,-1.3921211138746634,-0.06991192079817653,-1.0365541157107268,-0.7345521133999051,1.3705865019707069,-0.13083312149133913,-0.12466411330031184,1.8774433238818442,-0.4306664676479512,-0.6054966587021828,1.0376970895832733,-3.1180863299061587,-0.5680938074085219,-0.3721434508591772,0.46171493285666,-0.1454450438325075,0.2660743684828719,0.26380165656463667,-1.0639046635892764,0.6037692901256521,-3.9993480558693713,0.47467717064874976,-1.5971274287100288,0.3519946814745603,-2.762897067123559,-0.5647581247619362,-0.19780560771922323,-0.03754498742113943,0.544164680650349,0.12684612057742503,-0.05924947378854313,-0.27968342218221126,-0.20202612594960892,-0.21921722025085533,-0.2966778872523346,-0.20853733607474836,0.20573920744104096,0.39531723342139113,0.04734889037192296,0.07672642801492181,-0.20651291689206464,0.09366502642135577,-0.15734597542019732,-0.033219775224687824,-0.33998526133110757,-0.6599436090894152,0.05690963127773811,-0.0703425691442276,0.001767855274405235,0.3449358845636026,0.37061562009615145,-0.2528657578086454,-0.025113787089201492,-0.07560844903714674,-0.15095803994286688,-5.009114428928329],[-0.5618174551321936,-0.10709767807708173,0.029276017960135466,3.0431280717857256,-0.8196783121545602,-3.5175448779617784,-1.462405169689728,0.3524117889146108,-1.377033843509138,-1.9868893782304387,-0.19263185723717513,-0.14418749941240105,1.2470188730655525,-0.2533474990451899,-0.47820268548304246,0.6968920473289356,-0.6517413914089011,0.2510215810225329,-0.0824407671903685,0.6118756294832374,0.5319774314703747,-0.9401245289720105,-3.1303912889513503,-0.11122911766386154,-1.0670637702917531,1.322600107340264,1.1123489424450437,0.4317115896387572,-0.4689368074725476,0.3221582666244463,0.3856396241134226,-0.16804617727512136,-0.1499807077077924,-0.23218361462695694,0.19400757107351835,-0.44676974964467037,0.1938995349263579,-0.03826324807861986,-0.028590491539608725,-0.46128257111119925,-0.225973487827485,-0.09581743698420662,-0.02102507647686198,-0.30757890386021014,0.3574072162632832,0.01951420878973289,-0.35088021193818053,-0.32945703061623266,-0.15920113423017307,-0.021871554035390987,0.299018747496579,-0.004395705568091187,0.04749181591957969,-0.12686932881882373,-0.13149663093041844,0.15033670627111825,-6.606948560757504],[0.07956428708935204,-0.8156611834743814,-1.8294271304183096,-0.01347015536264209,-1.6376559431356486,-1.0381827976107487,-0.8473031419143938,-0.7503781651354335,-0.013514715975480832,0.1887397351435774,0.47734133646188714,-1.5926301920323467,0.35505886314195,0.2740656147244075,-0.33187614914730273,-0.15394048003254415,0.3409925433225257,-0.31740191368943255,0.04724829968255513,0.3421079487299005,-0.48998371679825137,0.05928740760624133,-0.8410535686092708,-0.3913108641774864,0.5370427125405102,0.013085609147502422,-0.5253386600205197,0.10056003118037406,0.6078276476372657,1.300813971642814,1.2774371205881945,-0.47168957201257317,-0.8656498813099892,-0.563592846373049,-0.27007212174808615,-0.2837201611506099,-0.024399057721427034,0.7657289824763607,-0.011988107631099306,0.06178693008603958,-0.5513156188771113,-0.20281109785246124,-0.15108661086055802,-0.18821005269287291,0.293045587714174,-0.27319270330306406,-2.3563880084064612,-0.5217085192883413,-0.13914466265297232,0.14088549248812512,0.26695153160736923,0.14170737752653417,-0.0626608739540025,-0.27049962158626994,-0.281909792573499,-0.5273111979273027,-4.670583782816547],[-0.6995049927507806,-1.0795120133447897,-2.945213106537087,0.36481533030844643,-1.144314436547803,1.5228217968235087,0.9148462906448934,-3.590177638640348,-0.9025906200609349,0.7463375432504881,0.4545688949533412,-1.6119391728177879,-4.099330651431746,-1.4203907865743672,-0.5736670107220991,-1.1473991925720028,-0.7119190702771928,-0.3779865111056694,2.902636084452835,0.4582665292505404,-4.311394050766852,0.5141240986403602,0.4202403208616333,0.3109538711357392,-4.072132236526449,0.8242381493071731,-3.197563895979437,-0.26238930519760456,-0.7466790339832778,0.5595965973773458,0.47732021533912844,-0.2702112194190399,0.5120345372605709,-0.20621518324943686,-0.21231076738258794,-0.3003168153414869,-0.05653020488035498,-0.02577248522163756,0.1986402518370452,-0.1377496095982374,-0.02256401639947495,-0.013773598718744534,0.02761900654546725,-0.24004608758027668,-0.3210385890951671,0.10641332783554029,-0.46119643202686966,0.03842349581339792,-0.22093663607555464,0.14670434818889397,-0.3120814678540098,0.20225721757659648,-0.12429912878120243,-0.20716829921021632,-0.1541716241588674,0.140161638579643,-6.155047858858522],[0.5987429485283164,-0.7950747751300211,-2.5441222537369934,-0.9396627121358526,-0.6171718130013196,-0.45040000378269784,-3.39308425949763,-0.17987572947610675,0.19062078567022495,0.9825839618100081,-0.13275694097617238,-3.1493948268445586,0.08009303212551881,0.06891301045380094,-6.296997244581055,0.7484139922388175,0.00797532167610872,-1.4778443742310423,0.639995118323671,-0.9541210311540208,1.2691143479458624,-5.409300119804198,-0.8157791677030165,0.3948955245062481,0.5430650551760081,0.8211125287100164,1.155997454593427,0.10969572060247464,0.09212865731890885,0.045299555321846666,0.03469670033685914,-0.13401689624184843,-0.3987039833310462,-0.3082417801629223,-0.276565204205226,-0.09553789537553463,-0.10984021525825702,0.33774785608892005,-0.05314654305633788,-0.3074060632319355,-0.2903621924117529,0.22166679398636246,-0.038394850674676004,0.19967703992932598,0.01091298319407553,0.25832014346910936,-0.14676245608595043,-0.08569940354342627,-0.11232671773198621,0.20461543212097932,-0.06920862669728815,0.02253230297884397,-0.17671818255912308,-0.20105693136888697,-0.2541450139398668,-0.20856406082317547,-6.09547013759711],[0.9204390431186653,-0.17998224856631911,0.31480976257754184,2.914634556678325,1.5275012287105285,0.6120106756417371,0.9196043689002416,-1.5166389366898618,-3.7615165154032995,0.4754458164993364,-3.4413459278033884,2.2280306035027717,-3.6344426823138405,-2.99473883632421,0.9869729705176997,-3.3956142214344784,0.8539668338266421,-0.613808970558355,-6.050284266505656,-0.41225571250308235,-3.898897960110901,0.18558352167414924,-5.882013460249732,1.2327985344838412,-1.9492337227658136,-2.9546448175279627,-3.6465747434821694,-3.3283170396770663,-0.5784242298153965,1.4765824407314256,-0.6596761076463653,0.2549810744451905,0.008805091177638336,-0.49289999330192097,0.23748995449492313,-0.3008518460000991,-0.029825364184446757,-0.18288747556999524,-0.3018871701007335,-1.1250705682277382,0.019243428959239643,-0.06630147005349347,-0.21717852389704398,-0.09665029479067784,-0.0590913118329284,-0.15065917130684575,-0.5092575094312939,-0.416196276499041,0.2658746141165584,0.05794508162368448,0.09316512766960752,-0.12121301661668914,0.22648154615544977,0.6361769293578836,0.6535765956053473,-0.2606522176148341,-4.801069041346461],[0.42186686794102424,0.13815863099324766,0.7330359076848914,-0.6632890639836315,-0.5255022507194742,-0.14347759751613176,0.4530247545638484,-0.26313873555470657,0.45024694968804835,-0.4522650441094931,-0.6122577301663975,-0.9145862738183648,0.7061001322634157,0.49420692692650237,-0.02126655223892171,0.12105641380219989,0.5327522370633138,-0.7987567093008722,-0.7940945555286887,-0.44652877590679896,-0.5245012635169176,-0.10908323848876267,-0.1312784938733068,0.35584739690118083,-0.06968457736545641,0.03985886391448212,0.8776621980528829,0.2642729295741104,-0.04264508686670265,0.8545342913796004,0.4413005953558542,-0.42830136488067505,-0.8182893054061628,0.36568971076719703,0.27705502012501926,0.7360307985447647,0.5729148487376543,-0.2877722883758622,-0.9538783005447132,0.5034309538100348,-0.11794695310662073,0.9438886242095796,-0.24934987590245505,0.4116737600189726,0.680493087225865,0.14282952563758666,0.7077088553867317,-0.694641910316783,-0.08850326720662782,0.1484359004806337,0.7597331822468769,-0.6938298358980453,-0.17204864530940345,0.2255931523659378,0.8388827177680933,-0.40821745244147145,-0.8414098208946669]],"WeightOutput":[[0.11641871094935083,0.08367488097169332,0.07168451538427144,0.1242892180487287,-0.02474966256766848,0.01905361552014928,-0.15066846714712429,-0.05495089959213639,-0.024588880405518196,-0.0566658719513774,-0.001199931786316266],[0.3138014971025308,0.5385921621751286,0.443597364545446,0.5200261447641176,-0.2661925727141089,-0.23611718954022315,-0.42575755404509674,-0.32715010714274956,-0.18927934099466848,0.5088333641012329,-0.0011307384751757408],[0.33184559111574174,0.11110422784671713,0.3117445116660159,0.29284341703314376,-0.6792713076592911,-0.5469218344040983,-0.5668508535980976,-0.681072215121031,-0.6917361054313654,0.2968613101439748,0.004689287521821757],[-0.7620657991676208,-0.7333712709935384,-0.8270263915957348,-0.9371587798459847,0.9702135429410783,0.7639854084241692,1.1432768747903257,1.063173221855919,0.9056043268315518,-0.7490288022938352,0.9976413827396701]],"ErrOutput":[-0.004951998692320601,-0.01338994352475032,-0.017660248548002657,0.036002190765073605],"ErrHidden":[-0.038076154478621935,-0.03599117669785983,-0.04157497319848742,-0.04649005745480786,0.050612865214252206,0.04023148275796389,0.05762493512623075,0.05495712470162668,0.04748228025466816,-0.038741958126572704,0],"LastChangeHidden":[[0,0,-4.602666940220932e-25,-8.786962471726863e-15,-7.317794626766832e-98,-1.4594579204363407e-17,1.413386887909374e-17,0.00002465978601481625,1.5314717207030816e-17,-2.757225834677882e-7,-6.094918396493307e-15,0.0000249355086874451,5.645922319610743e-14,0.000024659786023617524,0.000027337048772370046,0.000024935508687445103,0.000002401540078858729,1.2004567350744093e-20,-8.787040363180765e-15,0.00002733704885883619,8.037400053377226e-14,1.176819808227976e-52,0.000002401540084908016,0.000024935508681380148,1.3412525884100995e-13,-2.7572258346778986e-7,1.1688437073965258e-18,0.000002401540221741151,0,-1.6114824395499995e-26,1.4325863619957257e-60,0.000002401540084923769,1.7828290796728394e-297,-8.772918499584374e-15,0.0000249355086874451,0.00002493550868744627,5.6458665505381884e-14,-2.7572266382756486e-7,-8.785783244709959e-15,-2.6968613196343144e-76,8.646732066264759e-14,0.000024935508672564293,1.368331371484669e-13,0.00002733704882882927,-1.5733758910908932e-17,-8.787040363949457e-15,-1.4594579204345848e-17,0.00002733704891528081,-2.757226073685336e-7,-2.757226726147193e-7,-2.757226638418008e-7,0.000027337048820025296,0.000024935508681365944,1.0190208903687906e-19,0.0000021258175014559874,1.4291078358708865e-13,0.0000270613262365728],[0,0,4.978284526064268e-23,-2.8992480500863914e-12,-5.97539795029189e-100,-1.5107578022309122e-15,2.6984875242359612e-18,-1.0273652689080662e-8,1.1802849359149028e-14,-1.0272314027458032e-8,9.953884316900825e-15,1.575422964387471e-12,1.7627323926994375e-11,-1.0270753438330318e-8,3.045158472431567e-12,1.5754229667147375e-12,1.457906152885191e-12,1.1648346762082918e-14,-2.8875997035666818e-12,3.0365811318183684e-12,3.1881899724998437e-15,1.750282860798172e-46,1.4562728130111605e-12,1.5753937589317286e-12,1.473129598320419e-11,-1.0272325675789794e-8,1.5180410600004792e-16,1.909843326268383e-11,0,-2.1484809461957097e-27,2.388878404585165e-56,1.457935359781861e-12,1.1808956038105575e-298,-2.8992453518411893e-12,1.575422964387471e-12,1.5755747671656557e-12,1.7625815865106542e-11,-1.0272317212949181e-8,-2.8990962309792047e-12,-2.212164256373915e-70,1.4871139404603626e-14,-1.3253677306112865e-12,1.763051213067225e-11,2.0672482399423045e-11,9.985803553267066e-15,-2.8875997035701973e-12,-1.5107578022309122e-15,2.067404263044479e-11,-1.0254701537369478e-8,-1.0275228109346561e-8,-1.0272328863994717e-8,1.7771420000826327e-11,1.5753910775225624e-12,1.164834700797204e-14,-1.0270856092097206e-8,1.7640532519733764e-11,-1.0254554101301425e-8],[0,0,-5.178247723410882e-24,-3.9608967993866866e-15,-8.182446012481262e-97,-8.652664740549472e-17,3.6639548065004064e-16,9.869607133713249e-9,3.6757351180456535e-16,-3.301208131255253e-13,-1.9000121863759544e-16,9.869941116314418e-9,1.544249426181873e-16,9.869611461005707e-9,9.888993881590124e-9,9.869941116314473e-9,1.9053028203785215e-11,1.0686081220349364e-26,-3.960896887513947e-15,9.88899424999539e-9,-9.910884657107527e-17,1.6625590443746032e-53,1.9052676400293066e-11,9.869941380413397e-9,-3.8032842598456126e-15,-3.3012081304586875e-13,1.1780311436807309e-18,1.905273170899178e-11,0,-6.513938777395121e-33,1.3660881635004583e-60,1.9052764097669248e-11,3.095183806641212e-301,-3.5945014068745915e-15,9.869941116314418e-9,9.869941117492456e-9,4.3429363342337815e-16,-3.296553014822885e-13,-3.959718686908655e-15,-6.107370310504643e-78,3.6959045988257517e-16,9.869936966594428e-9,5.531603327883213e-17,9.888994036015068e-9,-8.769731835544252e-17,-3.960896887514114e-15,-8.652664740549281e-17,9.888994317893551e-9,-3.2950088394734587e-13,-3.336162056893509e-13,-3.3002170428247616e-13,9.888989986242767e-9,9.869941014017961e-9,8.81487998811949e-23,1.8722643284598025e-11,4.3630351442534675e-16,9.888660233003157e-9],[0,0,-1.2840004598491462e-26,-1.3851642535362428e-15,-2.1397471181384265e-100,-2.433314269435288e-15,5.0228810513212514e-23,-2.636618173222134e-14,8.475987484136311e-21,-2.5210954659822206e-14,-2.4317859990982672e-15,2.2994296375489893e-16,2.4550390515217214e-14,-2.4981017428195266e-14,3.740201265952936e-12,2.314680887840714e-16,3.739971309481726e-12,8.360912178594962e-21,-1.3851558925975113e-15,3.7402012605651204e-12,-2.5783063777305525e-21,1.6069505683266425e-55,3.737538000663009e-12,2.2993786298008057e-16,2.3163704123874347e-14,-2.5210962606247167e-14,6.481882182507236e-23,3.7620883965277644e-12,0,-2.190624586601911e-32,3.936321972320238e-65,3.739971314563953e-12,4.897616777135079e-302,-1.3851642032804284e-15,2.2994296375489893e-16,2.2994302832852517e-16,2.2115551170981102e-14,-2.521095201242252e-14,-1.385163774228938e-15,-4.150492138916037e-70,1.1002752525426694e-20,-3.587015170731869e-15,2.454886322662627e-14,3.7647516564681265e-12,-2.4317804146785054e-15,-1.3851558926248593e-15,-2.433314269435288e-15,3.762316819632298e-12,-6.605698769663648e-16,-2.6596124645747428e-14,-2.52109604424392e-14,3.7609331782493836e-12,2.3146335223906316e-16,8.360912973834159e-21,3.714761885028875e-12,2.2115562454831227e-14,3.73572221534371e-12],[0,0,5.37443187622638e-18,2.673447737748609e-7,1.4769801052280288e-95,1.5919774071732104e-13,-7.973546225111637e-14,0.000002523037201018615,-1.0816997755972905e-13,0.0000026020885724060766,4.973206883920135e-13,-3.464548334764999e-7,-2.099114809483463e-11,0.000002255692347508238,-4.16907344822856e-7,-3.464548334765157e-7,-7.045220787407876e-8,-2.2539768375350522e-14,2.673447512351117e-7,-4.169664166927994e-7,-5.866576901361799e-11,-2.1330341189218194e-47,-7.045231784610146e-8,-3.464545584493607e-7,2.672647620471016e-7,0.000002602088594903135,-5.894745400929707e-15,-7.05319972654988e-8,0,5.705705245739216e-25,-1.409494270258735e-54,-7.045248290649149e-8,-5.004255430991668e-295,2.673446940394179e-7,-3.464548334764999e-7,-3.4645483937660796e-7,-2.0911685779859948e-11,0.000002602147158444845,2.673447678374055e-7,2.332469381784681e-72,-5.91228123789893e-11,-7.910954578397946e-8,-7.965695979368034e-11,-4.169283359709493e-7,1.4251521661127202e-13,2.6734475123511325e-7,1.5919774071732099e-13,-4.1698727114019627e-7,0.000002602126189836695,0.0000028694919547596522,0.000002602147260720233,-1.495833912355845e-7,-3.4645447875660183e-7,-2.253978914598967e-14,0.0000025316360894995826,-7.994890519604738e-11,0.000002452505118074678],[0,0,8.812190815116886e-21,4.742058502899176e-7,6.640275865603018e-96,3.19848249416496e-17,-1.7666167110901499e-15,0.000006995982828883433,-1.7987590630020743e-15,0.000007320788853638944,6.402825914966891e-12,-7.991596643953013e-7,-7.997011396347139e-11,0.000006521776976782621,-7.997334967286657e-7,-7.99159664396107e-7,-5.674312430385052e-10,-3.109904514128671e-17,4.742058502809564e-7,-7.998876906020027e-7,-1.4778929662732863e-10,-1.2185811893414948e-47,-5.738322856264515e-10,-7.991532633592704e-7,4.739716880821607e-7,0.000007320788853652589,-1.043250753470545e-18,-8.015916877362539e-10,0,1.5260125546738353e-23,-4.929965017028913e-56,-5.738323012186054e-10,-5.1420963842551734e-294,4.7420584854543875e-7,-7.991596643953013e-7,-7.991596643963508e-7,-7.99718256516529e-11,0.0000073209366411468254,4.7420585027142095e-7,2.3042144054163192e-74,-1.5419391913765392e-10,-3.2494741124473465e-7,-2.2775940510309044e-10,-7.998134668426291e-7,-1.63242111308305e-17,4.742058502809564e-7,3.1984824941588725e-17,-7.999676606968214e-7,0.000007320856671108237,0.000007795142491512117,0.000007320936642966679,-3.256076165139348e-7,-7.991532615887748e-7,-5.323698365939068e-17,0.000007320215021336923,-2.3416401671692983e-10,0.000006995181235388439],[0,0,2.908687110516769e-20,2.8449612145436583e-7,3.501372159998865e-95,2.082340447130535e-15,-1.5061643671010906e-13,0.00021174337816226078,-1.5621504542464258e-13,0.00021164660554930014,8.885015182460609e-11,-1.8842491144440596e-7,-4.293562060272056e-10,0.00021145888189017423,-2.540165521742554e-7,-1.8842491144613762e-7,-6.550293210240148e-8,-5.58637220668713e-15,2.84496115875868e-7,-2.548069488602683e-7,-7.013973563924407e-10,-7.257356262106483e-45,-6.55916337031762e-8,-1.8833620842338933e-7,2.8327651359758485e-7,0.00021164660555422003,-1.2236038134966419e-17,-6.672239217753965e-8,0,5.927131231159319e-22,-1.594295354544527e-53,-6.559163513122245e-8,-7.563968068445006e-294,2.8449597084580293e-7,-1.8842491144440596e-7,-1.8842491145666592e-7,-4.2950473051816144e-10,0.00021164730679603216,2.8449612077564606e-7,1.5666758542992708e-71,-7.904072046636229e-10,9.616006507728783e-8,-1.1307542193026853e-9,-2.5444590838028273e-7,-4.160092213712864e-15,2.8449611587586794e-7,2.0823404471304393e-15,-2.5523630790211306e-7,0.00021164687744542837,0.00021193180292308875,0.00021164730695224295,3.005021452225805e-8,-1.8833605846729333e-7,-5.59424645159329e-15,0.0002115810139141672,-1.219761980743058e-9,0.00021167665561878007],[0,0,4.851556607368017e-24,3.0112463924006483e-9,1.0288124591212791e-95,2.3273012732378554e-13,-3.916873867494156e-14,5.332199235694989e-7,-5.67879073799872e-14,5.30807644487498e-7,1.496385748620428e-12,-5.986254534089825e-10,-2.884286382354604e-14,5.302086380083219e-7,-2.6934680018971506e-8,-5.986254534096965e-10,-2.633479486372506e-8,-1.7607482385004678e-14,3.01122878493562e-9,-2.6935623380234674e-8,3.594644920495989e-13,-2.2366272671743727e-49,-2.6335804229359385e-8,-5.973833707483954e-10,3.0102957378820416e-9,5.308076620702148e-7,-1.1684908850765058e-17,-2.633549119041839e-8,0,6.623411235747683e-24,-1.5207728779755239e-56,-2.6336036946395206e-8,-1.2251396948392286e-297,3.011207223679398e-9,-5.986254534089825e-10,-5.986254650938684e-10,1.6471854436914686e-13,5.308072458542364e-7,3.0112463559500412e-9,2.064722882973671e-74,-9.785631607383555e-13,2.4141348957909305e-9,3.3059688197549535e-13,-2.693470886183385e-8,2.1510954986991595e-13,3.0112287849371e-9,2.327301273237845e-13,-2.693543707568709e-8,5.308072346189033e-7,5.338185098541692e-7,5.308073026304884e-7,-2.3923229740696582e-8,-5.973442267558849e-10,-1.7607501296726734e-14,5.044716075411035e-7,-7.746889666369705e-13,5.068843931738603e-7],[0,0,6.003496732449284e-20,2.1466092544670298e-7,2.2326588694117162e-95,9.330108241914809e-15,-2.4719762239012156e-15,0.00015784254785765662,-2.4811614022613136e-15,0.00015762468675323174,6.746419354812623e-10,-1.4618663872667476e-10,-2.072363125219213e-10,0.0001576278869297357,-1.6598637092494703e-10,-1.4618663921243378e-10,6.54830415510078e-10,-6.886943277310908e-18,2.1466092544093236e-7,-4.186987170673474e-9,-3.34636560883124e-9,-3.138045195384956e-47,-1.9790508228823538e-11,5.2844349857299e-10,2.1043269079983109e-7,0.00015762468675312085,-2.298233122858798e-18,-3.57339231762449e-9,0,5.665551168046719e-23,-2.537219728997322e-53,-1.9799722962461604e-11,-1.9201165926475684e-297,2.1466092297584302e-7,-1.4618663872667476e-10,-1.461866410802425e-10,-2.0722945278793507e-10,0.00015762803311636755,2.1466092532661997e-7,6.948498380744296e-73,-4.021000698154727e-9,2.1518938063132247e-7,-3.5536020375406136e-9,-3.732226834469246e-10,9.207296254780677e-15,2.1466092544093228e-7,9.330108241914801e-15,-4.3942140417036745e-9,0.00015762782588006415,0.00015784269404182336,0.00015762803311884752,2.1428771198145486e-7,5.284458533949455e-10,-8.003209121136377e-18,0.0001576246669535083,-4.228227795510431e-9,0.00015783897446274575],[0,0,-1.6289701059487665e-28,-2.062472089359208e-10,-9.386102714719408e-95,8.963960206227954e-19,2.697810417661217e-15,-1.0569081492280093e-7,2.698830873654957e-15,-1.7806152930842464e-7,-2.2908578255418645e-15,7.257696749024859e-8,2.1234221973229732e-14,-1.054845650153926e-7,7.269541685634244e-8,7.257696749024859e-8,1.1844977214623583e-10,2.0476915813135217e-21,-2.0624720926486625e-10,7.269542773923014e-8,5.895355913571671e-15,1.047395060464737e-48,1.184493649556206e-10,7.257696789765214e-8,-2.0621778927820756e-10,-1.7806152930842273e-7,1.0184082795966896e-18,1.1847649420032752e-10,0,-6.803104301561873e-30,1.1924549071689747e-58,1.184493650733985e-10,1.377451281586218e-298,-2.062445114564963e-10,7.257696749024859e-8,7.2576967491267e-8,2.3932597791868404e-14,-1.7806153250563885e-7,-2.0624720791356064e-10,-3.295132355381109e-79,1.088390652421738e-14,7.237071799114417e-8,2.7129250843650927e-14,7.269543809056442e-8,-1.157283499226934e-19,-2.0624720926486628e-10,8.96396020700414e-19,7.26954489743466e-8,-1.7806151127208122e-7,-1.782677797152391e-7,-1.780615352037826e-7,7.248919088016131e-8,7.257696519951467e-8,3.330409216961124e-19,-1.7794307994335125e-7,3.211801015279312e-14,-1.0557233572943654e-7],[0,0,0,0,0,0,0,0,0,0,0,0,0,0,0,0,0,0,0,0,0,0,0,0,0,0,0,0,0,0,0,0,0,0,0,0,0,0,0,0,0,0,0,0,0,0,0,0,0,0,0,0,0,0,0,0,0]],"LastChangeOutput":[[0.0000024307701923804296,-1.4132442239318055e-9,7.523725264626778e-10,3.774235361818435e-13,-2.5413654854986536e-7,-9.014968739912549e-7,-0.000018472578030970818,-4.580442762545152e-8,-0.00001668675864394334,-1.6865299503402095e-8,-0.0011826511066114903],[0.000008817481893062562,-3.817423435995987e-9,2.8009941630876036e-9,1.0998879978800501e-12,-6.773550577638926e-7,-0.000002404302788078472,-0.000049949151914309676,-1.235091352280768e-7,-0.000045130687583261306,-3.95802191700919e-8,-0.003140154299822332],[0.000015204112187141452,-5.025899951244288e-9,4.964659154076407e-9,1.4084255830312046e-12,-8.266051928444347e-7,-0.000002996183063255124,-0.00006583259579667169,-1.6279418916403224e-7,-0.00005949575358844039,-4.216987725227376e-8,-0.004033819438291818],[-0.00002645236427258441,1.025656761117209e-8,-8.51802584362668e-9,-2.885737117093091e-12,0.0000017580967991581939,0.000006301982725324856,0.00013425432574195228,3.3210775201756087e-7,0.00012131319981564512,9.861539592576797e-8,0.008356624844725647]],"Regression":true,"Rate1":0.25,"Rate2":0.1}
