{"HiddenLayer":[0.021168972143795973,0.014354128898632416,0.017289364826633773,0.0056911410300288425,0.0010282601352502858,0.0015960577472613285,0.001060808298212293,0.006373657867163856,0.0009782375355421023,0.0035353724167888926,1],"InputLayer":[0,0,0,0,0,0,0,0,1,0,0,0,1,0,0,0,0,0,0,0,0,0,0,0,0,0,0,1,0,0,0,0,0,0,0,1,0,1,1,0,0,0,0,0,0,0,0,1,0,0,0,1,0,1,0,0,1],"OutputLayer":[0.002501180959805645,0.08189085483591266,0.3875476700479371,0.5280602942804375],"WeightHidden":[[0.7539977666241822,-0.2084447466819134,-0.07924739578584718,-0.12467681216101816,-0.34654023600723965,-1.1290348227428244,-0.7632018286256431,-0.5723959469156221,0.04130532310166098,-0.08006387514158539,-0.2919061403597129,-0.17371992963873192,0.5165202951580666,-0.208898677887786,0.3857113614341237,-0.4060035947911473,-0.3514198424777721,0.5106697157280227,-0.6967240224043907,-0.9469228989994151,-1.3636907633286983,0.4931514177169281,-0.8429264755018002,-0.5487897552714508,-0.6370692887172474,-0.33694940008284513,-1.267997303190481,-1.5062810721532833,-0.38933627059300824,0.42479961227772056,-0.22405489868228154,0.20904233074428444,0.7956471716321677,0.4122003200160422,0.6405711713679474,0.2525236089562424,-1.1125313775160137,-0.35445886744723965,-0.3845912110773787,0.1662012720527961,-0.4666349181481166,0.3017089934704351,-0.7749423312002558,-0.2991643877357055,-0.3395929231120135,-0.17820730118661932,0.13504127461293225,0.14808364680905653,-0.3378142658979826,-0.3722072364301137,-0.19698291728974884,-0.32441289247104593,-0.5165120521028762,0.2715846335395602,0.29193361384361666,-0.8536413662145792,-2.5093918683528136],[0.9033643239044218,0.0480021351373989,0.30493172931223,0.11842362721854506,0.06134499967736842,-0.24715324531353597,-0.04559662467598986,-0.3168996565466831,-0.2128563680244478,0.17210774789369498,-0.049124037791906806,0.05256632752921731,-0.16194762682564867,-0.18323116206798878,-1.1494736448006164,0.41976805077400864,-0.3924607509987611,-0.5839026318951721,0.37593347983976944,-0.7214774321872901,0.20663960784433938,-1.155560175669544,-0.9733100408194665,-0.9726307094930442,-1.0325889569791853,-0.14038398713259945,0.04737862885579896,-0.24187536229133674,0.3636325444205457,-0.6948098865055753,0.06631139780392417,0.02235134750267286,-0.6713513171899971,-0.5735645753776232,-0.02710106903527781,-0.5442347363745005,-0.3002313673814081,0.13666391667256025,-0.04110231145218593,-0.4073358806385553,-0.3479452520880177,-0.4631312854001524,-0.20820041627126928,-1.020195992813682,0.32712547902098027,-0.4777147097790221,-1.2027028086815317,-0.5876946784632477,-0.03816715734559615,-0.16816074138574139,0.18039186179459124,0.3077999223031076,-0.49457835120154114,-0.2745036203723434,-0.29735381180750103,-0.6541539186704349,-2.5975259080806405],[-0.8993628658685285,-0.09747828900683703,-0.2236724114710177,-1.1588841528449785,0.8275809741790036,-0.3915200512925275,-0.1358423925176133,-0.8720326693324898,0.6151353098712365,-1.2412722453935938,0.4524635505904613,-0.18516909992942904,1.1824874354939263,-0.5659232880200619,-1.0901826115690127,-0.5541712934863325,-0.8932609141734763,-0.7953407331812873,-0.8703793324319082,-1.0177180309989928,-0.8657174964106494,0.10404544694218054,0.6209490652392929,-0.37772243872284683,-1.1804631436122839,-0.23208612248389782,-0.6442289188302934,-0.4650823630296403,-0.6184796903763143,0.521052353435494,-0.23648389239203288,-0.06450452904045485,-0.6163047554710968,-0.03023597720868385,0.11603647427106799,-0.2301935570826297,-0.1580451634479589,-0.5868635222242219,-0.2943128352853734,-0.49455754063892166,-0.01693979916851101,-0.6418838917803187,-0.18047792408033184,-0.28533814834787463,-0.6688812456171073,0.032811674992637534,0.07360749223040311,-0.6545868044051181,-0.17658660977355803,-0.11903828589104685,-0.8176145417934667,-0.9493910480691494,-0.35229601611193423,-0.7158856965311005,-0.16779283921494662,-0.7494633580193784,-1.957878201655453],[0.9188024752406911,-0.9887900410962848,-0.5989484484833125,-0.47464575719993807,0.6338879025133318,0.13020922861539713,-0.7578143872085606,-0.5683238976356254,0.3626106980529159,0.6669878605959347,-1.2472626636511541,-0.14560037633994063,0.18443887307960471,-0.35574204670867315,-0.9949027264751996,-0.0885227007893097,-0.5430414314179035,-0.4248591264584488,0.5564448099968105,-0.959446612540041,-0.6333959134493724,-0.9564479486900752,-1.0035744463360277,-0.11100303948441255,0.2040622694034038,0.6090612297714152,-0.6920675969147594,-0.8762649857861725,-0.6350756959115655,-0.1990580653758843,-0.46998557302570043,-0.8364345246518038,0.07503857017434964,0.5504392616030407,-0.45559157664816835,-0.6832732776105945,-0.4263092624148575,-0.6233588321682276,-0.9543283034685719,0.3051146532863299,0.07446486638393797,-0.1201439902207795,-0.8961958929828406,-0.03191763557807397,-1.1132680756075182,-0.3566573742738241,-0.08126189151013416,0.32207596503055064,-0.8542526817116401,0.4942436325301872,0.22665084077113207,-0.41676023950427077,-0.9575229417994949,-0.34256096927650875,-0.5698363416996608,0.1169316505571803,-2.129929643614635],[0.45178197342504456,0.7511519532869622,0.8299323939180082,-0.7227486066388024,0.49721564892363046,-0.3875441967820814,0.6205240210154002,-0.4288066563120397,-1.2161410037190032,-0.44585908812557173,-0.349694675307859,-0.9061793872859435,-0.8762164769884137,-0.6236327662358678,-0.5070433115401062,-0.8822604207945969,-0.9772777211341731,-0.7226840193016705,-1.1492042415510206,-0.47089460364588104,0.15694833092578261,-0.4029594867879876,-0.6157932815373522,-0.3260896871337348,-0.24708930902029574,-0.9264556611360448,0.005863785966950558,-0.08390055839278449,-0.8336980816741973,-0.8968193321618609,-0.7727787156519287,0.23700284733654486,-0.12183978167537175,-0.4510609679956085,0.1775838974992638,-0.43744652246889043,-0.10156406110380116,-0.9267200965255177,-0.36770001792143264,0.42938664333768595,-0.5978947197733663,-1.1248975585741776,-0.11025954528131893,-0.1313432054378354,-0.17276915538246587,0.044820129608782934,0.615130495095198,-1.1237932728898543,-0.594549334746067,-0.8346445007341079,-1.2171823586227724,-0.8373754933831873,0.15144417357995985,0.3396664608011562,-0.3385365778587249,-0.5902133665080982,-1.3503430525015077],[-0.8234374623874914,-0.028647813060659236,0.57733853090045,-0.5991663907710955,0.6474555561354469,-0.5056165672879809,-0.22072346938511125,0.3863973452181087,-1.4278306392274622,0.17713076483324,-0.8166440593341274,0.6615007712534868,-0.489069325252644,-0.2164373277462098,0.42694142414702907,-0.410816306419562,0.030370853745507537,-0.7180994133508474,-1.1717968522351674,0.318597678043361,0.10487442645425779,0.20883822304349844,-0.5140395088574732,-0.24151821584207475,-0.9342811204329001,-0.7864383961500866,-0.4670019071065708,-0.5965721736441718,0.11121134025716306,-0.7598091908165086,-0.9563687164197352,0.04140257875834491,-0.14398046620933172,0.2720007956966999,-0.3489409302473968,0.06574188378767616,-0.177565792813426,-1.153789031764602,-0.18275308222807324,0.5708960099101055,0.13998875383123274,0.03600451047064635,0.01858340930658882,-0.29302148300702696,-0.35199804058942313,-0.6851549819189375,0.3533666846470489,0.25207431837869715,0.31065724599203043,-0.04935391254044932,0.3435832343777199,-0.27957118918760193,-0.2729570516909878,0.39156359127282664,0.4162007075302662,-0.01861423983605121,-3.020658616100272],[-0.7418883191943872,-0.8834421364113036,0.026069442316532545,-0.11736013961169041,-0.13048760952625324,-0.31404500572984173,0.38885364031779085,-0.5089308934581674,-0.11209171587443045,-0.5618868589519311,-0.33607281298078234,-0.21203612626636995,0.12726933364799775,-0.6011956665001229,-0.8259755031326421,-0.7772776272784041,-0.4205928670131504,-0.15289774748199583,0.4211992429191615,-0.8466894877753546,0.01813277681258733,-0.8416172112527412,0.4446019910072393,-0.573799640346877,-0.11728471421657422,-0.6997414644407213,0.5049289409212511,-0.4068137229648192,0.8536854732980224,0.08397162951943535,-0.2883411715669266,-0.02207464675537145,0.6148248211860503,-0.06126756283228568,-0.10451807326622833,-0.311646036657293,0.11837974755722434,-0.4559259272547038,-0.9536620602648767,0.6368968425159482,-0.7124950096672086,-0.38177736944344104,-1.1030819440123127,-0.0255997266695526,-0.45426296985105186,-0.3536779366000583,-0.41336618401167374,-0.5723482410595716,-0.20105975623797254,-0.4233110167176978,0.1449088385547382,-0.9717594265855322,0.09046892581978083,-0.8984763879121077,-0.05906124439674592,-0.7018330743602841,-2.291990823862722],[0.24701873985046263,-0.7954834377770994,-0.9345232184251865,-0.22402733875896583,-0.0004951199021018442,0.1538557394866916,-0.09104816256555096,-0.2704626296236867,-0.08339879968258156,-0.7059115203989055,-0.8598058107016927,0.7351126729259037,0.5107899256596578,-0.2980808270501443,-0.8691549780318972,0.05981742890025608,-0.09416608444721096,0.3537363522708317,-0.7716151998727325,-1.2448760423111391,-0.7314217209099727,0.3814816472781497,-0.0606634667510351,-0.33028968986792795,0.21662475169085438,-0.06377122119846025,-0.21602258765580368,-0.5408537601496823,-0.054268654697216756,-0.24414645906713167,0.833177317977859,-0.20786279611257774,-0.4459823259422376,-0.9707191223412214,-0.7428004718688759,0.10556201052142523,-0.11795868051038082,-1.2001696388498613,-0.681078102845879,0.33174518702774725,0.14606054076137545,-0.6725474447087315,-1.2242015940431255,-0.724809136097493,-0.08289100501655458,-0.7829637243968784,-0.5367711295850698,-0.39367784229443203,-0.5703615769150401,0.1215054574824341,-0.4100900719151033,-0.2201579797572917,-1.0492002667565907,-0.9657678105873866,-0.6294956002457704,-0.8244745342073528,-1.5785217780960579],[-0.6385451300593625,0.012184303938446939,-0.9517812326312248,-0.4029215113481712,0.7972979447897863,-0.5840615340773406,-0.08425630173307477,-0.3026636945025231,-1.1912897494941246,-0.9028847253687026,-0.5593840482199484,-0.3905726469790704,0.10384196030756368,0.046789855638184705,-1.4141049205347227,0.008088050382461933,-0.5761913823690232,0.272668042550143,0.2893121408851148,-0.4085329222616772,0.4098723491956046,0.48543941547740876,0.396461241694003,-0.1801220759576916,-0.7936801957012686,0.5403629095995686,-0.1452534259156574,-0.25233497582116243,-0.26970260096898857,0.8888840587256821,0.5366143301606675,-0.7403929605922646,0.41110979854356344,-0.9987809047312579,-0.05749979224388872,0.10163449371828606,-0.09635677779873648,-1.0875583360387988,-0.19586609096605798,0.014820214925744285,-0.7353646154333079,-0.6026498364269166,-0.2907253497371464,-0.9844010734278983,-0.9171232042591639,0.2370175770626924,0.19709633607291416,-1.2186047403716656,-0.9006771647159347,0.2332503561911315,-0.37698112231397796,-0.7924991194551186,-0.4020822466504669,0.115929316663678,-0.1936577699947845,-0.36414229935721565,-2.5118510078869387],[-0.08702009662997023,0.16756592181008773,-0.39745988085915807,-0.0406812058731032,-0.11056082084586913,-0.5761129437915747,-0.8096632390142026,0.48526827856362464,0.1930011205428044,0.21214549103577032,-0.3199726162940037,0.5452252251206302,-0.006450161285208203,-0.9619829451262684,-0.776752077544565,-0.6652278331680229,-1.0580425450898865,0.1892087787999717,-0.31516283555229846,-0.06451803516829632,-0.6059353104479919,-0.32483035844949737,-0.2812609849269067,-0.39025648817707537,-0.2345591023532268,-0.4526012955912846,-0.3377830833292078,-1.0933445233381034,-0.47652464895955227,0.6937936344607601,-0.15942330012670272,-0.6595975831357822,0.1971026535831905,0.0847795422992424,-0.46899941056028593,-0.559959982366299,-0.6643950093013834,-0.9284234084709303,-0.5564552575371533,-0.04308806792384905,0.014734900874154187,-0.35523523609742047,-0.64922030664586,-0.7516352332548518,-1.1304482582001145,-0.27135477500967464,-0.502943062842767,-0.04890866448779443,-0.8267204985585241,-0.5767346753342264,-1.1172994694258986,-0.497485237519418,-0.22849934273399689,-0.6431408269842771,-0.7818616740827473,-0.0726933847730556,-1.5007341773182024],[-0.7280521316833468,0.5936095093412967,0.4851358076020831,0.4584752584382894,-0.5465512746151406,-0.9672676899679984,-0.6507611092829544,-0.6142440586204843,0.7587308118643183,-0.7422783580232337,-0.5311878607677891,-0.6403025577223109,-0.44454706291696655,0.21810859853228304,0.6544838461427578,0.47803890559535245,0.90334551296034,0.535144635110107,-0.1396594810243772,0.5853382839993735,0.9197975540457917,0.859813405137454,0.8132536866487396,-0.1606433946490442,-0.8476508959603863,0.7652934206904207,0.875791749004138,0.5687061331113803,-0.8453327384174755,-0.5777724589159634,0.6463424807658744,0.35503305536143315,0.6692643779798921,-0.7180607885173351,0.4117080682112413,-0.9843361155925128,-0.21509296447362036,0.3800933348722175,-0.22055911057621025,-0.7789559874255128,-0.05935259141512772,-0.4255013550307256,-0.026845785629437513,0.23598454700512428,-0.4680786373589716,0.8497565881512403,0.8725637516182876,-0.8757875700762738,-0.8873007644319989,-0.22259232564728126,-0.6043751159218614,0.3108038912923683,0.4866849310832646,0.6659993230602492,-0.5636950763260374,-0.14716574763267698,0.0889618317325176]],"WeightOutput":[[-0.010099717809468414,0.04895327784301377,0.08746752075188469,-0.0606102634578036,0.05306668622907887,0.020637524035461204,0.0033812895398329787,-0.03609079505318038,-0.062329501156945466,0.011020197869141548,0.0003245821467162851],[0.07309915581625115,-0.06807823963400592,0.14121001791166288,-0.10763190981201759,0.0636837467529789,0.25243569716212527,0.04123044266335436,-0.2734744866021346,-0.10294691545134589,0.09951821264621497,0.05669595784991265],[0.2943708672997413,-0.365627431484811,0.30026472148233796,-0.3642262362066861,0.4231496436513415,0.43729147301341276,-0.12198915350189185,0.05917948670743953,0.01700526038868381,-0.0064205991364704815,0.2744747800776576],[-0.3573702956108865,0.3847523916728011,-0.528942256030453,0.5324684403229863,-0.5399000623068454,-0.7103646924495439,0.07737743789582548,0.25038581497407336,0.1482711346682901,-0.10411792960479024,0.6685046798702055]],"ErrOutput":[0.002501180959805645,0.08189085483591266,0.3875476700479371,-0.47193970571956245],"ErrHidden":[0.2907712331363337,-0.327272139526234,0.3794656869890251,-0.4008468625149769,0.4242406619672848,0.5256177344685724,-0.08030286111495816,-0.11707275906685635,-0.07186737727387314,0.055189039442729085,0],"LastChangeHidden":[[0,0,1.1354514119800595e-88,0.00004661219694085485,5.5350055991313064e-282,-4.4016184641987844e-46,2.4273894554395222e-11,1.6602003957038516e-19,0.0015534661786058656,-1.6992125681747075e-8,0.00004661180713219498,2.952205323232118e-23,0.0015062395490263163,1.9969470915983982e-7,-6.22526242127991e-7,-5.681967921266994e-13,0.00004662074052109843,-4.735791714198047e-12,1.9931019010715677e-7,-5.3031535913823865e-12,-6.229054724082279e-7,-8.928099296265355e-9,-1.696786616825389e-8,0.000046820026437311205,1.3546154480297495e-14,-6.059133323452537e-7,2.3720913996574843e-11,0.0015062306161903935,0,1.0191341495931889e-50,8.182851427628483e-21,0.00004722662959393037,1.7081073270350624e-97,3.8451988760624245e-10,-1.6992140062900633e-8,0.0015064469185205635,1.8231804920959118e-7,0.0015056416949981108,0.0015528602605521097,-8.928099296265355e-9,2.370653267706393e-11,-8.928084915029798e-9,0.00004662074052026369,-8.54357940866718e-9,8.330965678104365e-21,-5.303153515612577e-12,2.3643770418368586e-37,0.001552851337174224,-8.928099296099363e-9,0.00004742593978403744,1.4381069420895497e-14,0.0015528602848251692,-6.059133179643503e-7,0.0015062565648729118,2.427389472038903e-11,1.997189838894835e-7,0.001553051050868506],[0,0,-1.8852694417067714e-86,-0.00008123254585069189,-1.7974318718318704e-281,1.3512462938556215e-46,-3.755183773627971e-10,-3.64064997134447e-18,-0.0012417629941306849,4.236995876042592e-8,-0.00008123251674483168,-2.9676347542468216e-23,-0.0011575263778698876,-5.892202954524719e-7,0.0000030462727206789843,8.337038218467084e-13,-0.00008123306721014123,2.8322450005471575e-12,-5.891948314925497e-7,3.656845101177174e-12,0.0000030462945518386666,5.468234092723932e-10,4.199446442760554e-8,-0.00008182188652326006,-1.49408599391356e-14,0.0000030039245690300576,-3.747178258047368e-10,-0.0011575258282051297,0,-2.2720963614466957e-50,-3.869719062798768e-20,-0.00008423661628484215,-2.632689144756606e-97,-2.547306368260405e-11,4.236998280533102e-8,-0.001158157393019427,-5.468248395874616e-7,-0.0011545642736189006,-0.0012387590667534544,5.468234092723932e-10,-3.746937772590443e-10,5.467993610501808e-10,-0.0000812330672010412,5.213503456280798e-10,-3.9240385502459453e-20,3.656844819074191e-12,-3.7120500470543574e-37,-0.0012387585227382422,5.468234056317672e-10,-0.00008482581111633438,-2.404458114965945e-14,-0.001238759442262728,0.0000030039245449891204,-0.00115756912254647,-3.7551838100351787e-10,-5.895958229372383e-7,-0.0012393481149192752],[0,0,7.755711476499517e-87,0.00004578578603468541,6.4125019964703686e-282,-1.530602227053968e-45,1.3949538498793035e-10,1.2539221860069105e-18,0.0016576635300220375,-6.970963433477888e-8,0.000045785747990401154,6.073860897724221e-24,0.0016117527923169075,7.361456166522366e-7,-1.9252054281384134e-7,-6.377713786552401e-13,0.000045788032043005696,-1.2604053590265596e-12,7.361094698219031e-7,-1.897800250314376e-12,-1.925547925654299e-7,-2.282155150616712e-9,-6.957013967124219e-8,0.00004652400201744387,3.4501596520487765e-16,-1.2284515750794589e-7,1.3885871290872954e-10,0.001611750508900975,0,8.942686704577217e-50,5.210590802612278e-20,0.00004591073770585141,1.1521986767041065e-97,3.6147206872856675e-11,-6.970963505633768e-8,0.0016125563280058532,6.663998343903876e-7,0.0016116973733785222,0.0016575406836048456,-2.282155150616712e-9,1.3885799009603163e-10,-2.282154427859425e-9,0.000045788032042630515,-2.2460079437959286e-9,5.2163817631401415e-20,-1.8978002475816413e-12,5.373449348893467e-37,0.0016575384027093776,-2.2821551493627963e-9,0.000046646847175673255,7.215033324043775e-16,0.001657540823099854,-1.2284515678769707e-7,0.0016118226408099539,1.3949538624186528e-10,7.362851124150184e-7,0.0016582746859243375],[0,0,-1.1541074207762671e-87,-0.00002023697399324924,-7.802037957140783e-283,1.9103731098663826e-45,-1.3152899625421644e-11,-3.2955852747333683e-19,-0.0005874330743691034,2.2377733195217326e-8,-0.000020236562983787858,-3.771030944747374e-24,-0.0005670508628668104,-0.000007323871613199635,1.6710128433193798e-7,1.937223212283236e-13,-0.00002023709063492867,7.967142311928514e-14,-0.00000732346087093033,2.7314199277456673e-13,1.67511759660578e-7,5.273839487269596e-10,2.2364586496847374e-8,-0.000027560538352959705,-5.94950572982414e-15,1.4513402026377564e-7,-1.2965630721633884e-11,-0.0005670503354029384,0,-1.058266048829452e-50,-1.8276881647213513e-21,-0.000020382211508494403,-2.2152247754114926e-97,-4.107425210574956e-10,2.2377739396559544e-8,-0.0005743961740132652,-0.000007301083131282433,-0.0005669275791220707,-0.0005872879402753694,5.273839487269596e-10,-1.2959429049867688e-11,5.273777471399731e-10,-0.000020237090634677246,1.1664142767116662e-10,-1.9607427311471482e-21,2.731419155898878e-13,-2.1455710306613863e-37,-0.0005872874129648906,5.273839483974034e-10,-0.000027705672379424646,-6.201257300863782e-15,-0.0005872879534280173,1.451340140628538e-7,-0.0005670732535656359,-1.3152899954978238e-11,-0.000007323884766351347,-0.0005946112974640495],[0,0,2.2470030429008656e-86,0.000004254746714829279,2.0098267824651848e-281,-5.619442712095508e-45,4.2498483038499935e-10,8.437357367345788e-19,0.00011356081101378761,-1.12583299996831e-8,0.0000042545602695092935,2.1316347886423103e-24,0.0001089340423590516,5.415305367016841e-7,-3.829133682780616e-7,-3.930151595205791e-12,0.000004255367066543869,-3.5290974223176634e-12,5.413515445143128e-7,-7.45744323172154e-12,-3.8308490913774135e-7,-7.993439019594116e-10,-1.083335128482826e-8,0.00000479629362622864,4.309762795687838e-15,-3.7182657302168433e-7,4.210626009794373e-10,0.00010893323948424643,0,9.557976264704961e-51,1.8436492273013648e-20,0.000004626768660851561,4.663021805873067e-98,1.789939931758151e-10,-1.12583361152452e-8,0.00010948584936487596,5.300932065941389e-7,0.00010857267124733911,0.00011318898091778401,-7.993439019594116e-10,4.210564845736074e-10,-7.993377855669256e-10,0.0000042553670647389455,-6.203499088018802e-10,1.864385906827406e-20,-7.457443238644872e-12,2.0573730194580604e-37,0.00011318818509686312,-7.993439011156775e-10,0.000005168120205365859,6.115548595984184e-15,0.00011318940590080861,-3.718265669069814e-7,0.0001089457217516514,4.249848312287827e-10,5.419555233387192e-7,0.00011373013316706835],[0,0,6.933821488402444e-86,0.000029364433495937994,5.709015705066531e-280,-3.02715491472455e-45,9.087910529731944e-10,1.4508923602989398e-17,0.00024099999742354611,-3.7297787600288414e-8,0.000029363890549231014,1.6890964752061159e-22,0.0002093570267645914,0.0000012496942921704276,-0.000002307347745362718,-3.403381934367087e-12,0.000029373297841335025,-2.269706628737974e-12,0.0000012491569695014714,-5.6717586664896546e-12,-0.0000023078794453089843,-9.401668065949306e-9,-3.638904558332594e-8,0.00003062154601979803,4.770613094741464e-14,-0.0000022705816086581765,9.054380514772877e-10,0.00020934762282548896,0,2.887056099026334e-50,1.6662619055037274e-20,0.00003164297070799077,1.2866158763374527e-97,5.373239988693921e-10,-3.7297836636361594e-8,0.00021063407763162673,0.0000012118591315497677,0.00020711433905345246,0.00023872941359421725,-9.401668065949306e-9,9.053890008955963e-10,-9.401619015412628e-9,0.000029373297840019654,-8.864344067096384e-9,1.722699387861499e-20,-5.671758677582744e-12,5.13504846951145e-37,0.0002387200141468075,-9.40166805144051e-9,0.00003289212767749219,4.903602752118766e-14,0.00023873032238394033,-0.0000022705815596366973,0.0002093952299902286,9.087910674821111e-10,0.0000012506030845678624,0.00023997061160732272],[0,0,-5.030228064745801e-87,-9.090543789891459e-7,-1.0262131104144471e-283,1.3469610179706463e-46,-4.068372069301502e-11,-7.61846044584077e-20,-0.000022206253388183744,8.113878581983761e-9,-9.090268923831391e-7,-1.3174896679464431e-24,-0.000021265779990645816,-2.543279824890286e-7,3.991657670191549e-8,5.402347156179121e-14,-9.086842138870503e-7,1.0602708398587065e-13,-2.543006533199723e-7,1.5991742848478014e-13,3.9943748567064156e-8,-3.428359330395144e-10,8.073197474811228e-9,-0.0000011629441834864057,-2.4804012868916865e-15,3.182986737148373e-8,-4.063244395345966e-11,-0.000021266122720418645,0,-5.664336158051507e-52,-7.867288799616587e-21,-9.404734001514455e-7,-1.841231066624501e-98,-2.7329302191241823e-11,8.113881195512606e-9,-0.000021528537254934122,-2.461867719914093e-7,-0.000021242406734242597,-0.00002217442341739869,-3.428359330395144e-10,-4.062983034843503e-11,-3.428385466440741e-10,-9.086842137540072e-7,-3.701652352229142e-10,-7.895116150459034e-21,1.5991743594147152e-13,-4.949540158400825e-38,-0.000022174766356745216,-3.4283593311569773e-10,-0.0000011947740534714174,-2.613528349692922e-15,-0.000022174464100986254,3.182986475803164e-8,-0.000021273934501671678,-4.0683720769199424e-11,-2.543686663429328e-7,-0.000022429134865651112],[0,0,-8.548597563925935e-88,-0.000011674251722635619,-5.390493973879146e-282,6.034427843054164e-46,-2.1256101082366064e-11,-1.0211256286315567e-19,-0.00019704091778611647,6.923968670864338e-10,-0.000011674240223233157,-1.6976073304838524e-23,-0.00018535575883193845,-9.8875119926655e-7,8.628409695170582e-9,6.289601563355604e-14,-0.000011677233118411031,1.4801719887175706e-13,-9.887399098486927e-7,2.1037787199728828e-13,8.639489663662895e-9,2.992685193269241e-9,6.711416945039743e-10,-0.000012665951772158744,-3.9315792433908754e-16,7.947091867974441e-9,-2.119466901935417e-11,-0.00018535276599819265,0,-1.3173043107297441e-51,-5.086824490029588e-22,-0.000011685158955106524,-2.044151195620295e-98,-1.1289953200327277e-11,6.923977955949848e-10,-0.00018634219830583693,-9.880475115178653e-7,-0.00018534551130412015,-0.0001970329705471598,2.992685193269241e-9,-2.119374040872485e-11,2.9926842646666937e-9,-0.000011677233117875791,2.9813952400694207e-9,-5.312652286369288e-22,2.1037786492004652e-13,-3.0042807315395417e-37,-0.00019702997800905513,2.992685193167145e-9,-0.00001267389886495521,-9.285004321917732e-16,-0.00019703299180272554,7.947090939576633e-9,-0.00018535647242347446,-2.1256101184465365e-11,-9.887724559030778e-7,-0.0001980187502549735],[0,0,-5.610188562758968e-88,-4.872809846521423e-7,-2.0384123739601215e-282,9.762555175352672e-47,-2.5753142139401368e-11,-2.9605122290839517e-19,-0.000018065622838636654,3.058368930335367e-10,-4.872784979273771e-7,-2.0627556421864853e-25,-0.000017558342322720894,-0.0000015260981259046223,2.0150720905407172e-8,9.394075931285183e-14,-4.874595293668449e-7,2.2166314895004904e-13,-0.0000015260959547117978,3.155141408691366e-13,2.015257665575817e-8,1.807159075242962e-10,2.800838225636645e-10,-0.0000020135297309367993,1.809693432263953e-17,1.9846739690759056e-8,-2.5659363114622113e-11,-0.000017558161385060457,0,-6.189537771911964e-51,-9.299012953893064e-22,-5.07280515987431e-7,-9.953113571594374e-99,-2.1712825925380694e-12,3.058369647071374e-10,-0.000019084563176736957,-0.0000015257901176576225,-0.000017538620482334096,-0.00001804577587735441,1.807159075242962e-10,-2.5659291144970478e-11,1.8071583555778436e-10,-4.874595292773745e-7,1.785446249326868e-10,-9.359576785773235e-22,3.155141411696118e-13,-7.250566766036804e-39,-0.000018045595383038075,1.8071590722824513e-10,-0.0000020333764706992256,-7.167045941639266e-17,-0.000018045801630406784,1.9846739619387153e-8,-0.000017558673818976744,-2.5753142435456993e-11,-0.0000015261238791368284,-0.00001957171894664266],[0,0,6.829821016600184e-88,0.0000039646191080693885,1.9785408851254515e-283,-5.9199896111914935e-46,1.0276625864693996e-11,1.9198540969216456e-19,0.000052596632358339977,-1.491590855199333e-9,0.0000039645909741976185,3.417426045707182e-24,0.00004860451035373531,1.2449751292726982e-7,-2.852110012331585e-8,-1.9518294058651297e-13,0.000003965075559014784,-2.6560479000119357e-13,1.2446983922671017e-7,-4.607529291358388e-13,-2.8548313687271144e-8,-4.84124645954954e-10,-1.4813148456521942e-9,0.000004089535121615821,5.815194643894537e-16,-2.7056722215562268e-8,1.0082094245886338e-11,0.000048604025963449765,0,5.821616949866872e-51,3.3579239420409256e-21,0.000003992122005220994,4.29403471652016e-98,2.7673735364452476e-11,-1.4915914715278894e-9,0.00004872998739414799,1.2297824772058043e-7,0.00004857846083270552,0.00005256957537113594,-4.84124645954954e-10,1.0081477725351582e-11,-4.841240294420506e-10,0.000003965075558980177,-4.564509105938577e-10,3.3636672708664187e-21,-4.607529250648909e-13,3.49767522648652e-38,0.00005256909151147827,-4.841246457629717e-10,0.000004116591844447697,6.16320916147737e-16,0.000052569585647727,-2.7056721599433546e-8,0.000048606012026684555,1.027662605667659e-11,1.245077895881315e-7,0.00005269359884089499],[0,0,0,0,0,0,0,0,0,0,0,0,0,0,0,0,0,0,0,0,0,0,0,0,0,0,0,0,0,0,0,0,0,0,0,0,0,0,0,0,0,0,0,0,0,0,0,0,0,0,0,0,0,0,0,0,0]],"LastChangeOutput":[[0.000013503780186860957,0.000009405628618973753,0.0000109969086973784,0.000003492287148256619,6.525531386398994e-7,0.000001087067448189371,6.558208600955354e-7,0.0000040951062822637945,4.5676280655804054e-7,0.000002315241155247384,0.0006806837641004833],[0.0004482201675491885,0.0003184780870285529,0.0003651224697335776,0.00012441655629954687,0.0000223463400569751,0.00003899291262494808,0.000023414750438095738,0.00014041926004652427,0.00002439057980740576,0.00007913792668408785,0.02375317676190395],[0.002112563121371334,0.001486408188341565,0.0017218712320701273,0.0005774017239158927,0.00010377748199073113,0.00017595910852321255,0.00010832503626917491,0.0006573619648068393,0.00010458869282693837,0.0003697787399632935,0.10749111720013146],[-0.0025742870684709765,-0.0018142919035763927,-0.002097990609979008,-0.0007053105671833221,-0.0001267763751552274,-0.00021603908855360356,-0.00013239560753409808,-0.0008018763309466967,-0.00012943603540010857,-0.000451231907701012,-0.13192497769924225]],"Regression":true,"Rate1":0.25,"Rate2":0.1}
