{"HiddenLayer":[0.00008340017006906298,0.000049664192531305796,0.00004907471803868636,1.6117852075443334e-10,1.4879554168439936e-16,4.5591867749612365e-7,1.6431886979249365e-8,1.5626190536332705e-13,9.565436127221912e-11,6.140901107570425e-9,1.2054269459556423e-8,0.000059391345449980634,6.02342828736609e-10,0.0007289843959004892,1.8428472799745043e-11,7.68025495970757e-12,0.00005465656699320059,6.611432702100513e-9,0.0002993348443647091,2.3304583967949197e-9,1],"InputLayer":[0,0,0,1,0,1,0,0,0,1,1,0,0,0,0,0,1,0,0,1,0,0,1,0,0,1,0,1,1],"OutputLayer":[0.11163758608120389,0.002105613682860358,0.1695982924669039,0.7166585077690321],"WeightHidden":[[0.3234658091492837,1.439935590440237,0.4358905001019316,0.5615955933422614,-1.948389055455415,-3.533870910898363,-3.356449248111215,-0.3583592294515585,0.23214723328186918,0.3390991065951218,-0.4753309634050258,-2.396637690256038,-0.6475481640822559,-0.8841318765095023,-0.49312317349793694,-0.010630963607693894,-0.23782480383983842,0.7829500255840101,0.2545281346472118,-0.530379625142955,0.22184949810027546,0.8808979271554622,0.8343929855781758,-0.13352399550767388,-0.5538452018938891,0.07257085083872022,0.6124666642458589,0.2866430569918344,-6.70851619393857],[-0.3074128886467362,-0.6033639717189264,-2.6021121185079403,1.2616492200938219,-0.8546463653202002,0.17768678682744068,-2.664379063415047,-0.6057328844006241,-0.18489958446573806,-0.41075837501326057,-0.19530554124769023,1.0908014753031672,-0.2072528064463263,-0.08824141737159001,0.4827898205066074,-0.8948989864027236,-3.119214106006898,-0.3407103078641706,3.413992660139223,1.044709459539156,-0.9242216595244336,-0.18672314870720166,0.46328784362764713,0.01819220848153305,-0.3531952550105253,-0.23323026541740902,-0.3969968408640874,-0.30583968283268237,-8.593080929911151],[0.6115441132641998,0.7009903294764818,-2.9493653142283995,-0.49716276996690095,2.1791509711210275,-0.23450644633839576,-0.0754791472400822,0.3101121235649157,2.4017154363597735,-0.4810853489476546,-1.9686485322910943,-0.25073368928416423,-0.5920130487544887,-4.004015298876329,-4.722753383750276,0.21287927502459997,-0.21459617087908053,0.45994644887530983,0.2253996015794482,-0.18432555576245813,-0.6017630879512279,-3.4809034669863306,0.7135482341840694,-0.02157897684965699,0.870814082078806,0.13551455681084684,-0.6552091657042982,-0.756325427723626,-6.434481571139333],[-0.7269716679452554,0.04274316236285176,-1.9715956888378212,1.298150706628366,4.862382774319984,3.8574833057717965,-1.675934687360861,-4.981476512760356,-3.3906602027177657,-0.8498858028565109,-6.455649076275322,-0.856545590182974,-0.20407759552552707,0.6203145505904956,0.36277768439397584,0.4103223643650618,-1.75970008825168,1.7424623282848077,-1.820316203097771,-2.7025420735444396,4.598817905432207,-3.091257002196468,1.1736410394788583,2.0321577639102952,0.9942463061886689,-1.6422270638451821,1.1900260747759779,1.061789019869851,-16.52956850731763],[-0.640575236662984,-0.10643738308813468,3.614073355803741,1.0271284438316015,6.6463328787944675,-0.39080792924454444,2.649753402540424,1.9520246712791793,5.670072755760347,-4.3913752531576415,-5.575323547443596,-0.7832609603389825,-0.18316622869566818,-2.7988867555628394,-1.935748383067176,-4.62573039835624,-5.131199199805607,2.28151938764833,0.6156648000404661,-2.654826756529217,-6.135144191761374,-0.8258574433492125,0.8149920197591939,1.7557366576444857,0.3116180174071784,-3.7541485226204463,-0.1797042354182575,-0.7928910917979364,-15.595506676727693],[-0.3625615545012606,2.0850752388890412,-0.7982496444524195,0.23183359184051963,-2.1909694759634792,-3.8788291537694244,-0.03882006092788961,-0.2972777324369335,0.5948878240242508,0.7838355495984471,0.40491757695373143,-0.9176669418080381,0.2545138399530429,-0.37397328223314774,0.35871432609638737,0.08740759961929041,0.6037327962385081,-0.6227070331946344,-4.965497353750177,-4.734258766300229,0.18340988451748047,-1.9377640652452657,-1.1125319461777086,-1.1279248257176193,0.27365765172338447,-0.8777389766200583,-0.27425363776158723,-0.7736065349207039,-5.2483029104449335],[0.890973524898379,2.1969375316355,-0.4816533721829718,-1.805238306276368,3.5187171896110674,2.2076432769460954,0.6132984426685959,-0.2545741855587012,-1.9560437991999782,-1.1624077174670169,-1.0516497812066103,1.6169327306894963,-1.8383053477916174,-2.9848808724443483,0.5163884404061447,-5.876241361635206,-2.892868255722568,-0.07965109113968352,-1.8156435981724297,-0.09199199576265107,-0.13247103071478067,-0.8419100171160463,-6.431080217689701,-1.9955974368005291,-3.586827097654595,-2.549284426341554,-1.3726034857288414,-0.3723948748776984,-3.7747696964626165],[0.3195235804284556,3.759998863665313,1.6630894285038256,0.24075099538687794,-3.9416682312079496,-0.6719492299648907,-5.269138782380067,1.4977808480511625,-5.050909176681499,-6.387838520749341,-4.140251074819451,-0.6160249464210709,-5.658654183697371,-6.633633870008965,0.5236084182916357,1.0529875612169552,1.9439057835049105,-1.6242868247533995,-3.510940744573298,-6.718599318062136,-1.8858668724596526,-2.932285685805675,-3.3201663289032886,-1.3735190640342496,5.795422340835053,2.3178468912112113,-3.0099709821469944,-2.0403984905257335,-10.710543621949729],[0.5336940743714456,-1.0444950048380097,5.153843484191281,-5.343727476672296,8.83076831453458,3.6885321835233587,-4.298360300058165,-0.002172536940190998,-3.188099899917811,-2.463870250080509,-3.20834245388855,2.0825855456043825,-6.419422308306944,-6.192975846009297,-3.5067696322883384,1.3068639562090083,3.959525818654236,-5.527699030379257,-4.825010672194828,-0.41567666970310646,-4.684740684497899,-4.074718567291552,-4.169106570761776,-7.45916876476647,-1.1595065759903067,-1.2152587941230233,0.9410416231802124,-3.8359972182545414,-10.066358393654111],[-0.26737927556621116,-3.188264387312635,-0.24561268648457965,-4.050782133028852,-2.3035157825136134,-0.7368101060204324,2.0294840843576414,1.3406741845623413,-0.7821977790913893,-1.9410347614653833,-0.5482125343235568,0.7100496470584261,-0.08664593753947353,-2.8286626353624706,-1.1454310894835806,0.24624910075268555,1.742370785917756,0.24545620761588016,-0.28809442576311706,-2.405996095782875,-3.853328266218373,-3.4293900865995957,-4.831917810508147,-4.96778003625943,-5.073515826552162,-1.3483165775364272,0.10689365728499015,0.2955482748138343,-5.083143390033043],[-0.703478463852281,-0.2414486503036676,-3.825723722292175,-0.9999043867338206,1.425657947287745,0.3508598162349026,1.346780463937258,-2.6471638442173773,-0.5732796484618373,1.0212311415987672,0.13796662221657052,-1.8437369575388711,-2.4486482177048563,0.5563475626304675,-2.6737519302067185,-0.048973265060371904,-3.312471489772414,-1.577832284452515,-0.21584912267227993,-0.5759304980230726,-1.1823510425883161,1.1321246875050093,-2.9587023466601843,-0.03699878971354293,1.3289301453358302,-2.318928371645364,-1.7524618560406764,-5.278539038952762,-4.299428310569334],[-0.4198825151371267,3.454215942690971,2.9620395554896293,-0.04332361009258888,0.7860292455184603,-1.203228554015405,0.09293607187288355,-0.02160921571921689,0.5908380608223462,0.22976261991884372,0.010820125048916461,-3.3641369373764727,0.7802812453147426,0.34371207862462066,-0.2568995182885176,0.6523371393448945,0.5959929316757991,-3.4215816596726016,0.451817141768529,0.6655688874276281,-0.4080407490549518,1.2424726727323923,0.513336607242049,0.4719438028171376,0.04970509878038283,-0.8418146255907524,0.16296064258885354,0.039184648037552366,-9.697561576897195],[0.15834885292704096,-1.975232942997562,-0.23057138532360408,0.10823351736681286,2.736195284452224,-0.8483789896203622,4.462549691161355,-1.8203241488656563,1.1269428786579094,-4.775392048549838,0.9632574555480007,3.2630121414847553,5.029832255167844,1.0974530760598067,-0.3734382418672944,-0.24322050342215623,0.21373162540698365,0.3198794152365035,-0.8192541291588362,-0.22249188760321778,-1.0728353002786004,1.5255598329411217,2.536992380310181,0.7080391528736633,-0.2866570130425477,-1.8682880425326172,-0.1472961827367198,0.34284305601851683,-17.68070141699145],[-0.355603282879421,-0.4095788376577155,0.22133147225670732,0.563915710750866,-0.7975397299392029,0.8230121785090847,-3.431309627299908,0.0027626159691270923,-0.6643888586987798,-0.19767220327335192,-0.04283989616736767,-0.04509442345503918,-0.9438150144977412,-0.7852050441986035,-2.381940136414544,3.4828844780722585,0.41189091920835086,-0.7748098924594033,-2.245682898491185,-0.5934640732089429,-0.028590880755798853,-2.267398757549496,-0.4017836111600877,-0.31275307058498214,-0.45751460671489047,-0.6558158631172013,-0.6495433198492077,-0.09905569339106593,-7.0303468778122316],[-0.6772668320123703,-0.9399240068548155,0.624009207785386,-3.420879738105664,5.490803455089212,-0.7760859234178157,-2.735972909889209,-5.778576440539859,-1.9426692556097678,-7.250181257232765,-6.9145910897656595,0.9120350170856891,-3.539973188800825,-5.600113131493727,-1.0487121654946605,-2.716920997457553,0.6098126867197788,0.3576600503843621,-7.5278239404484255,3.035109358197333,-2.623629792114495,-1.658096555901119,-5.378456828334798,-2.494236768626594,-6.927810978173907,-1.2286014689217046,-5.257240703293677,-0.6402058294323384,-2.753044122296585],[-0.7920589580564485,-2.5588385277074956,-4.242323788539246,-1.7439947367193873,-0.5237951829669809,2.617997612804321,1.4756346553249384,-0.8221402889175029,-0.6125846523149066,-5.675471717988099,-3.1929787019143636,-1.9457136742984447,0.7015993257898364,-1.1007774601351195,0.3601625595344788,-0.701069087989369,-4.4984597549432985,0.5453957752239684,-5.532217230907631,3.7294464867861787,-4.9682967003317655,3.3035484251119414,-0.21424882992623054,-1.5031969915907046,-2.8827645226378102,-4.48229538592203,2.6269294245809935,0.16706751382345383,-12.299430857505323],[-0.8739294782788951,-1.524022700667142,0.2767219794369765,-1.3756180191047456,-0.15599795646484801,-3.705708079216449,0.9137042873702679,-0.3836762805637596,-5.161465701555854,0.2231134911230763,-0.41465882659018394,0.0379989250045637,-1.5555162010229402,0.06836847934167205,-2.491827641520179,-2.2973336772260953,1.0732425775984191,0.15810269482320097,0.4846975248837259,-0.426821543761786,-0.7460948285486309,-0.1709021784292379,-1.2389063242227076,-1.2263809141942228,-1.0858029572626422,-0.08943569517350655,-3.3674738716172197,1.5205713524805091,-5.380119026807002],[0.3768145488944812,1.5479217209221758,-4.209243858376994,-0.06333734760611057,6.426781064897671,-4.415609087188597,2.050808734173531,2.4211553710043336,-2.1255264504469915,-0.16895890180307954,-1.3418543185427105,2.8087657601208678,-2.0270228226042413,2.4559222899419613,-0.5542328411897751,2.4843413680435282,2.035336558741255,0.2699637906381843,-2.035478970989983,3.03491804812847,-1.328802277978927,-0.6129534787934529,-0.5587533878831145,1.4165236644444306,-4.378276477588527,1.6427671844297729,-3.1524374781242845,-0.8556561649581826,-18.14331804233234],[-0.6152399575090868,-0.7420561882198166,0.7645399137480461,0.14510877052750243,-2.666292805999432,-0.5303173894740232,-2.5000155120337584,0.06618672359508043,-0.04398793541992689,0.3647977913746909,0.1947459225094148,-0.3195173212913849,0.043271140445098694,0.07964114128444647,-0.9480646560709058,-0.5225346979914555,0.12636954513077403,-0.2254617303994145,0.3909413250852783,0.022904319303631536,0.5991719049940556,-1.2061456103397408,-0.8613059346497891,2.0476333442412806,0.4588423792258732,0.7461865070404639,0.20993259711826973,0.1496560094387937,-8.471286453470082],[0.5645953136074204,4.113865902904645,-3.245147091869635,-4.358994201476821,-2.4082629596545364,0.7049682776584232,-3.487667137372309,-3.778950252853403,-5.690377166900257,1.0941403506481866,1.1011460874454886,3.466707531388187,-0.19396197802560686,-3.6720591104390854,0.057621940696143306,-0.7689310312808235,-1.0771315138187916,-4.337203628662303,-6.142478031508659,-1.1060353338730717,1.786365362408465,0.25708076125640233,-3.822563882017731,-1.4494825460269853,-2.8351594411580883,-2.0087576447442905,-3.8093841632172634,-4.596960468330026,-5.807012527158369],[-0.9840241536752657,0.15438408366731582,0.9844498645737434,-0.6768869134804283,0.8892400229843564,0.4758865268637029,-0.681701789746084,-0.7179722505676116,-0.6112967943577218,-0.6308340447055547,0.5699597077544456,-0.7894877519688558,-0.7587325731238486,0.47893806190066424,-0.8583354991807587,0.11120296071448266,0.28574981265830934,-0.19208214874979423,0.04044170388868418,-0.3595838873916085,0.11302378017221049,-0.4616164377852354,-0.046021404356992535,0.6836977884927635,0.854087303638356,-0.26978944634162805,0.903415594817992,-0.18021605016244202,-0.35635293541521706]],"WeightOutput":[[-0.2515568068602087,-0.07085015948994822,-0.06763462885897205,0.07061932815761114,0.03485064854211407,-0.12467192686392316,-0.055649826300103226,0.017697943751328663,-0.010929838085497206,0.13415170392600886,-0.046988500545453234,-0.02293930916621697,0.017289280502379878,-0.05412986898936522,0.10293373462519241,0.06223968817388549,-0.007081691249578745,0.028375535002484298,-0.15566022025526488,0.023587424791818114,0.07935942169551904],[-0.34062011466618564,-0.014323957844919449,-0.2644453777235556,0.22276728959381706,-0.03726243232751156,-0.4269342910407308,-0.35319138797702243,0.1281888591822287,-0.04096976266161371,0.2962068366636799,-0.07644990895926533,-0.17614330697981997,0.12559313258220606,-0.04108417498490414,0.33657239573010783,0.19145005105122606,-0.26996497697328437,0.02645701654151251,-0.6134680715104341,0.37648698085093624,0.0017749807601698813],[-0.9881347125542773,-1.0765262373082112,-0.6311070047737257,0.9364532963503577,1.548882945562851,-0.8852615310011127,-1.5600443846137422,0.8800076606709818,1.2025226719360447,0.8988246267013082,-0.31762903486132554,-0.28163164396176865,0.933560021252914,-1.079600377931005,0.6324616117487482,0.9657501417656517,-0.5203187650613263,0.8534087736081196,-0.9843418551313143,1.5300862993544961,0.12221258566093268],[1.5803116340806747,1.1617003546430913,0.9631870113562649,-1.2298399141018017,-1.5464711617774416,1.4368677489057815,1.968885598890863,-1.0258944636045255,-1.1506230711888972,-1.3291831672910048,0.4410674443660451,0.48071426010781426,-1.0764424343374945,1.1748144219052512,-1.071967742104066,-1.219439880990779,0.7973654332841938,-0.9082413251521115,1.7534701468969272,-1.9301607049973235,0.7966530118833786]],"ErrOutput":[0.11163758608120389,0.002105613682860358,0.1695982924669039,-0.28334149223096794],"ErrHidden":[-0.6441511012889093,-0.5196726331938523,-0.3880513817460607,0.5156383896411038,0.7046795314577006,-0.572080070111363,-0.8294041435206398,0.4421719367316791,0.528658602569152,0.5446519337447768,-0.18424870241599972,-0.1868994549233034,0.46552557536877803,-0.5220787101663464,0.42319731417688333,0.5166588989540886,-0.3155290341575486,0.40530260784410355,-0.6824340824498967,0.8098206174977418,0],"LastChangeHidden":[[0,0,-1.2848042429722729e-11,-0.000014381299035682735,-4.580903930495799e-30,-0.000014429747457900757,-4.1655052444800333e-13,-3.4967269751285334e-11,-3.740421463419215e-7,-0.000016528877419721353,-0.000017106641193526055,-1.2848039899339033e-11,-4.043158095549436e-11,-0.0000020991241496888205,-9.518536727939056e-7,-0.000002676947023813458,-0.000016528837043034937,-4.1655043496390915e-13,-0.0000020991245601667995,-0.00001438133941062765,-0.0000026284502557048542,-6.9610520914988746e-15,-0.000017106641667430082,6.262002176817754e-7,-0.000002050680663741857,-0.000013429493127675854,6.262351361651367e-7,-0.00001552855976132969,-0.00001648044144198038],[0,0,-6.783972650820648e-13,-0.00000849902180625924,-4.7895936080838014e-30,-0.000008512572740114511,-7.309448915527369e-14,-2.9218253628214085e-10,-0.000002026144059216819,-0.000008528550302683065,-0.000008549175823489905,-6.783972514644158e-13,-2.923044737157857e-10,-1.597739370370223e-8,-0.000002047062423963497,-3.689607550228451e-8,-0.000008528258005973704,-7.309449466317442e-14,-1.5977457624821806e-8,-0.000008499314102911117,-2.3052191950200222e-8,-9.202789874846753e-15,-0.00000854917590442991,3.417590269529725e-8,-2.4264931065973954e-9,-0.000006452252244582229,3.4468086641959795e-8,-0.000006467645860141469,-0.000008514999992505252],[0,0,-6.114884785457978e-15,-0.000004879777087376129,-2.8506391225157024e-29,-0.000004881037593150418,-1.099112985806939e-11,-9.69075777768791e-12,-8.164967543533308e-8,-0.000004850145256359491,-0.0000048876075892573065,-6.114884783053421e-15,-2.7750297280120195e-11,3.0921323247039604e-8,-1.1912164101779647e-7,-6.597752544760533e-9,-0.000004850117570224669,-1.0991129856947815e-11,3.09103321424134e-8,-0.000004879804773510609,-5.316430442218096e-9,-2.5408536058806243e-17,-0.0000048876186445500826,3.874487890367047e-8,3.21748889369264e-8,-0.000004760665079093441,3.8754505524234034e-8,-0.000004729713389265251,-0.0000048488737656208555],[0,0,2.970110871267972e-14,-1.385753875400115e-10,2.3883778319136153e-27,2.1026246524613682e-11,4.535947495110889e-21,5.4154288734357135e-18,-1.63698291704229e-10,3.5871829043146074e-11,4.0217269937581486e-11,2.970110871266142e-14,3.168647195990099e-15,1.4842420120047696e-11,-1.5932314475173774e-10,1.922389353980628e-11,3.586866049405785e-11,3.886798962628881e-21,1.484241975440525e-11,-1.385722189921863e-10,-1.404074472520281e-10,3.690854872641344e-19,4.0217270041271064e-11,-1.6391737285008643e-10,-1.4475605091447007e-10,2.0777464006380982e-11,-1.6391737853508805e-10,3.564957366334379e-11,-1.237001031780459e-10],[0,0,6.066779012792668e-16,-7.00766291484581e-13,3.855771835026137e-33,1.4345035375646997e-14,1.1239863240924143e-17,7.153446679720094e-20,-1.4934644897637711e-12,-7.783156377517551e-13,1.4345035843200517e-14,6.066779007119696e-16,3.0326012232024595e-18,-7.926719555749498e-13,-7.00199985203378e-13,6.097109780046318e-16,-7.783157518862766e-13,1.1239859634701057e-17,-7.926607157219455e-13,-7.007661773548576e-13,-7.15125442118259e-13,6.679669670396352e-24,1.4359194172515646e-14,-1.507190720724642e-12,-1.5077973981662161e-12,3.7524692754099903e-17,-1.5071878737943384e-12,-7.920391359180122e-13,-1.4928315265587723e-12],[0,0,-8.700069204424955e-12,-1.8523514552625419e-7,-3.1442356450812114e-31,-1.87375104739942e-7,-1.8274782641334046e-16,-2.6840167074816818e-14,-1.0716697813682462e-7,-2.7135942949685455e-7,-2.8422209942544276e-7,-8.70006823134708e-12,-6.659563642246102e-13,-8.398368319519293e-8,-1.2003837582757034e-7,-9.685636382857027e-8,-2.713587610715183e-7,-1.823625339770403e-16,-8.398368478539714e-8,-1.852358109194989e-7,-9.470767490170904e-8,-1.101919487943317e-16,-2.8422210166078463e-7,1.4993931182058714e-8,-8.184436482750757e-8,-6.520549464282322e-8,1.4993959087331868e-8,-1.4919782535082197e-7,-2.6922816886312605e-7],[0,0,-6.259813917334828e-13,-5.450773050689776e-9,-6.860266554367754e-31,-5.482559856654606e-9,-3.9390812663787805e-19,-2.511456088603355e-18,-2.0433804507189322e-9,-5.482336296126267e-9,-5.482560159626575e-9,-6.259813917152203e-13,-4.395842342274984e-18,2.2356572751453067e-13,-2.044230299581766e-9,-6.262917281978485e-13,-5.482336288778996e-9,-3.9390493758243536e-19,2.2356387210214622e-13,-5.450773055083226e-9,3.1786500014864297e-11,-1.5465259514884097e-20,-5.482560161499083e-9,3.138469029400003e-11,3.201036725263221e-11,-3.4071687335474607e-9,3.138469429550335e-11,-3.4075711452411385e-9,-5.451175469712998e-9],[0,0,2.1134491149432596e-14,1.1765763537369814e-14,2.7600208860321637e-39,1.729323213764566e-14,6.599342266637016e-26,1.6723347183522968e-20,-5.521990564638497e-15,1.7485992763066146e-14,1.7500073174976146e-14,2.1134491149432574e-14,1.673294019594937e-20,1.927613484563504e-16,1.5626597353730177e-14,2.1341349285994488e-14,1.748597603020897e-14,2.162511757783357e-26,1.9276098219376395e-16,1.1765780270144429e-14,-5.320627187340092e-15,3.6631973889608556e-22,1.7500073175053177e-14,1.559294323599891e-14,-5.3347072424593835e-15,1.7273674422620548e-14,1.5592926146462036e-14,3.8600892741272156e-14,3.309301604476876e-14],[0,0,1.0854127031252029e-14,1.2980001101973683e-11,6.0841808235455064e-40,1.2980001120288457e-11,4.4053878911016006e-26,3.903486108197045e-24,3.378752174354383e-13,1.2980001479230297e-11,1.298000212502287e-11,1.0854127031251952e-14,4.018293516998522e-23,3.589314581496791e-19,3.487299902403075e-13,1.0855131809024127e-14,1.2980001479209837e-11,4.4029660247319553e-26,3.5892842381493183e-19,1.2980001101994078e-11,9.86419454432231e-19,3.1085072531359577e-24,1.2980002125042733e-11,1.085346291332759e-14,3.406134173157979e-19,1.2642125238751822e-11,1.0853462926073081e-14,1.2652979724700499e-11,1.299085558795292e-11],[0,0,2.0768049126190403e-12,8.844314173643147e-10,1.4390319120402166e-37,8.844314199078673e-10,4.6424755991725564e-17,5.193191317186592e-17,4.522437098754093e-11,8.819391416802611e-10,8.849826753141007e-10,2.0768049126154056e-12,5.099237216191275e-17,-2.4923267747252685e-12,5.0344762670630264e-11,2.6281150553757602e-12,8.819390876093671e-10,4.64234662335027e-17,-2.4922784913484512e-12,8.844314676983455e-10,5.512060605514595e-13,7.922799993706489e-21,8.849827242627083e-10,-9.668266137025555e-13,-2.4923742603871095e-12,8.361635090215062e-10,-9.66879763030934e-13,8.357478387259565e-10,8.840158957737609e-10],[0,0,-4.4320211742431004e-17,-6.273805321567607e-9,-2.3341787496447435e-30,-6.513543230997031e-9,-1.5014260686514147e-16,-6.115702283455303e-12,-5.176120159922461e-9,-6.48588323902696e-9,-7.022230823369752e-9,-4.4320163308563433e-17,-6.513027735380478e-12,2.8009170256428072e-11,-5.718559338801684e-9,-5.152248090438422e-10,-6.479370217752263e-9,-1.5014305009178698e-16,2.803316535359707e-11,-6.280318341297656e-9,-2.6937098902555956e-10,-2.4146599640607013e-14,-7.0222309781730255e-9,7.7601331812802e-10,2.673499176670752e-10,-5.613858677799031e-10,7.821531603657896e-10,-5.210968964715032e-10,-6.246193514437911e-9],[0,0,-2.045859665090247e-12,-0.000003969216976475317,-7.420767225479209e-29,-0.000003971690984699115,-5.502931861283582e-15,-9.691154846825007e-11,-0.000001014875215092766,-0.000004376150194755027,-0.0000045555073362576075,-2.0458561696520796e-12,-1.0005000976125436e-10,-4.044560890674675e-7,-0.0000011943312983993578,-5.839184589105604e-7,-0.000004376050150217919,-5.502905409319635e-15,-4.0445608718828145e-7,-0.000003969317018255167,-5.813454699656116e-7,-8.759387206762024e-15,-0.000004555507351339861,1.818290981972285e-7,-4.0198520010383276e-7,-0.0000027749846346371454,1.8192601165246768e-7,-0.0000031792489248343067,-0.0000043736782430146385],[0,0,2.5875691248643895e-14,1.643719303550655e-10,5.74695783136018e-30,1.6481936490142015e-10,4.723277085353424e-17,2.2394483536444645e-16,9.357090174974776e-11,1.69492375625926e-10,1.7019159640270133e-10,2.5875691243615563e-14,1.2448532790074293e-15,4.672985528589645e-12,9.42952172734743e-11,5.3996196215065616e-12,1.6949194409984084e-10,4.722780004224335e-17,4.672994710151024e-12,1.6437220759938754e-10,4.924027745572919e-12,1.1556283774597573e-16,1.7019268573090338e-10,-1.1215717682582545e-12,4.224744482993876e-12,7.010188391618862e-11,-1.1210211835735337e-12,7.480009717057664e-11,1.6907092239581535e-10],[0,0,-5.4714381339656405e-11,-0.00009640892357884493,-5.41028903266708e-31,-0.00009640919387367513,-2.5662518927899944e-16,-1.740681413725267e-11,-0.0000013286570773300275,-0.00009776548461475604,-0.00009776828605796715,-5.4714381320269896e-11,-2.1253347024662058e-11,-0.000001356287114181505,-0.0000013315305178502211,-0.0000013591682480631773,-0.00009776546338925855,-2.5662760295323824e-16,-0.0000013562870184344082,-0.00009640894480429851,-0.0000013588257759987554,-9.603093479289326e-14,-0.00009776828608610182,3.0167639904585484e-9,-0.0000013560206098952077,-0.00009507746525031108,3.034238969324027e-9,-0.00009643377207296511,-0.00009776526922607448],[0,0,5.928943270269762e-14,2.0357695129903093e-12,8.613050376850411e-36,2.037596180132764e-12,3.5144677643438135e-22,5.758864520525469e-26,8.604946292110031e-14,2.037596178697058e-12,2.037596180115642e-12,5.928943270269762e-14,3.1166284112600787e-21,-1.8155558086116644e-21,1.45338893948451e-13,5.92894358579296e-14,2.0375961786392574e-12,3.512555971883963e-22,-1.4580711006932497e-21,2.0357695130066708e-12,-1.826670559404399e-15,1.4659880347216956e-23,2.0375961835876857e-12,5.746276036196605e-14,-1.8266723517955256e-15,1.9497200486384934e-12,5.746276342699803e-14,2.0090094791656745e-12,2.095058943914472e-12],[0,0,1.176083314192095e-15,8.062982782842917e-12,3.975651945687786e-34,8.97337856266998e-12,1.0514385226238217e-20,1.5060954622589072e-20,7.07095578169128e-12,8.973366771711781e-12,8.973378581192211e-12,1.1760833141824823e-15,2.7947071426655055e-15,-8.564999188308061e-18,7.069348657115281e-12,3.973726118627914e-15,8.973364186130555e-12,2.884032644607163e-22,-1.143998113531665e-17,8.062985273671268e-12,-9.131825322485587e-13,2.936215684169319e-18,8.976170707012156e-12,-9.120149372835873e-13,-9.131939530085944e-13,9.92020931183416e-13,-9.092257333248285e-13,9.931826562620213e-13,8.064152848364799e-12],[0,0,-7.154076858684338e-14,-0.000004311265491277113,-6.504171963753646e-30,-0.000004311265492238043,-9.947322427288988e-15,-1.4505736052841198e-12,6.457383354703478e-10,-0.000004864652536148523,-0.000004865364504997743,-7.154076752065487e-14,-1.450576260192556e-12,-5.533870340394499e-7,-6.775258864417677e-11,-5.541005349162935e-7,-0.000004864651085572205,-9.947322220038983e-15,-5.533870439473014e-7,-0.000004311266941853363,-5.540990018936181e-7,-3.9503572548817097e-17,-0.000004865364514945105,7.119180455587276e-10,-5.533870231338995e-7,-0.000004311199260842302,7.133686586901604e-10,-0.000004864583455249016,-0.00000486465259686001],[0,0,6.558851900286743e-17,6.728005903891614e-10,1.2445177221324751e-29,6.72800292320463e-10,5.237495322682636e-16,3.8738309943365233e-13,2.8874442269041662e-12,6.737485075569037e-10,6.733660262036095e-10,6.558851846901968e-17,3.8738323473810287e-13,9.476990528862645e-13,2.892407704268922e-12,9.531865588260047e-13,6.73361124329867e-10,5.237495363100399e-16,9.482189584427423e-13,6.731879736105583e-10,5.655121605433062e-13,3.846788918944904e-18,6.733665499692926e-10,3.8180903565417773e-13,9.474734863089524e-13,6.702956352034783e-10,-5.57790004161201e-15,6.70468102205731e-10,6.737483551553471e-10],[0,0,-5.249328348398917e-11,-0.00005200790215511852,-1.2835594103383495e-28,-0.00005212496845028912,-3.559712003682074e-14,-3.0245462458644484e-9,0.000004326577363879809,-0.00004847945285583335,-0.000053757119609399554,-5.2493279829656736e-11,-3.0634196385490125e-9,0.000003645554442974349,-9.541663982909206e-7,-0.0000016352671073438382,-0.00004847638943370916,-3.5597119703968727e-14,0.0000036455544369345897,-0.0000520109655733804,-0.0000015151237323944287,-3.148763076658708e-14,-0.00005375711964827046,0.00000539468053548605,0.0000037625818992348592,-0.000051056812824539535,0.000005397705113773152,-0.00004740526168572769,-0.0000483624390793776],[0,0,7.442383806055622e-15,6.445411622356684e-10,3.032325476878278e-39,6.445449304176633e-10,1.4594268782926912e-25,1.1766264601964564e-18,1.7272791413565434e-10,6.446069446243454e-10,6.446069157269488e-10,7.442383805821968e-15,6.77352832662665e-17,6.202295734598807e-14,1.7273529114067862e-10,6.953332909112875e-14,6.446068767251412e-10,1.6921016835355508e-24,6.198530603932654e-14,6.445412299577096e-10,5.832148793099211e-14,3.7743153540117144e-17,6.446069158059057e-10,3.816230110304039e-15,5.832149121759168e-14,4.718133523000192e-10,3.777231725662093e-15,4.718827398999923e-10,6.446106942140822e-10],[0,0,0,0,0,0,0,0,0,0,0,0,0,0,0,0,0,0,0,0,0,0,0,0,0,0,0,0,0]],"LastChangeOutput":[[0.0000030624291064970152,0.0000018345236474397972,0.0000014126884248267526,-1.2281711917007448e-10,-4.1812984487467065e-13,5.820476438788041e-8,7.246980245414539e-10,-1.2566047869774154e-15,2.7420540866208116e-12,1.819609493722251e-10,4.028062755890587e-9,0.0000028385746430465545,4.094109233456474e-11,0.00002096125458376356,5.364006246571891e-13,1.1906016415346027e-12,0.0000017453623237050796,1.8550190387375835e-10,0.000009365713373070864,8.918262557561506e-11,0.032393824415303286],[5.3583370663439485e-8,3.527424472470282e-8,2.646795647782915e-8,2.9608913342149846e-13,-4.3700068972340385e-16,9.939707265187696e-10,1.4378123421154771e-11,3.7815858402737274e-16,5.1931202554459013e-14,3.4544393030991416e-12,8.180052771157055e-11,5.0187146487165294e-8,8.002769576716922e-13,3.94042291347462e-7,1.1074003253563353e-14,4.015765951465261e-14,3.178783364770882e-8,3.4862044782402296e-12,1.567073217170084e-7,1.7132046260850956e-12,0.0006117265468222059],[0.000004193585189184052,0.000002775848950762291,0.000002107768211395956,1.6427708205513983e-11,-2.684585187591025e-13,7.60040695771182e-8,1.1194928104472259e-9,1.7822522250328326e-14,4.168092648706133e-12,2.7474381986407906e-10,5.585828525738473e-9,0.0000038198202227528074,6.135832827944257e-11,0.000031760179989184426,8.502804566858437e-13,2.9661152720155986e-12,0.000002600932954827956,2.8197744826579843e-10,0.000010989097284403074,1.3479342608953073e-10,0.048679768671881986],[-0.0000073095976663445,-0.000004645646842926787,-0.0000035469245927005358,1.0609332183113906e-10,6.870253643234965e-13,-1.3520280469151727e-7,-1.858568958409833e-9,-1.6944076047378288e-14,-6.9620779378813995e-12,-4.60159208539403e-10,-9.695691809340618e-9,-0.000006708582012286522,-1.0309969757167892e-10,-0.00005311547686429541,-1.3977550845965951e-12,-4.196874573064849e-12,-0.000004378083112180741,-4.709655566177966e-10,-0.00002051151797919093,-2.256892562912307e-10,-0.08168531963400742]],"Regression":true,"Rate1":0.25,"Rate2":0.1}
