{"HiddenLayer":[0.002445587208006413,0.00016884695485790209,0.00043169875502949655,0.0005956841835440361,0.001206843031185801,0.0015687108163621403,0.0011902365281382314,0.00008651456959740947,0.00017045197908939713,0.00023315192507567382,1],"InputLayer":[0,0,0,1,0,0,0,0,0,0,1,0,0,0,1,0,0,0,0,0,0,0,0,1,0,0,1,1,0,0,0,0,0,0,0,1,0,0,0,0,0,0,0,1,1,1,1,0,0,0,0,0,1,0,0,1,1],"OutputLayer":[-3.550587232325997e-11,0.004095396318098203,0.12159265965668303,0.07670159578325751,0.7976103483635247],"WeightHidden":[[0.06473738574248333,-0.11519042870388921,-0.4162156437320063,0.34697812828210933,-0.8797689984716602,-0.9354911647837488,-0.1164282864908913,0.12746596800229346,-0.8666560466318285,0.0707448549819316,-0.7111841514788022,-0.6622758095234555,0.6704465184073629,-0.49819217761761453,-0.8146698870772452,-0.020100782777985052,0.09678390782675979,0.2624471226540532,0.25469455202486463,-1.0108331889392423,-0.8981970344075225,0.2599150854953813,-0.4809370715150668,-0.4547732777232783,0.31166864363310565,-0.08716035873424337,0.23478621642499106,-1.0929101583028449,0.48289035924716495,-0.4958336755719983,0.6437929632474021,-1.127299226344935,-0.6736909826998836,-1.0377979297154294,-0.681724444696669,-0.05582894916721388,-0.1128020880031614,-0.9597224467806397,-0.35092256438044234,0.5650259604107806,-0.06921538034460736,-1.1026999925085414,-0.42470441161414885,-0.2724318627668028,-0.09088585240111013,0.2662592595321486,0.19075271310337102,-0.19455884719337718,-0.6050480204102734,-0.6615199205107656,0.0848481194256982,-0.7235620338242476,-0.4906812655054265,-0.9992386004027055,0.08059420465385222,-0.5118889708657269,-2.5540904282138817],[-0.8528186090753656,0.7729012306029279,-0.05295149246431379,-0.47038973415195107,-0.824883201243471,-0.10710645750029611,-0.23050985578482647,-0.7286556774128634,0.2863688703060539,0.6108945345162422,-0.20712027598361257,-0.5561030969755602,-0.40733936978118984,0.3085169018313914,-2.203167577731968,0.45555424137507483,0.0028968109016247103,-0.03996637250730543,0.5728437473299369,-0.4457909568326255,0.6630339073552174,-1.3535208309154971,-0.6366018023713581,-0.2988068987574901,0.12979080668992937,0.6029677162491495,0.1659266495178468,-0.17090045125922243,-0.4009921855361376,0.5993315221878287,0.6606395623551007,-0.37292138080180803,0.08418298503542385,-0.8623044517034623,-0.7440594386561948,-0.6936612125474266,-0.2710564273144294,0.023320910445427386,0.004471970097662025,0.0972977548715106,-0.37060092870953587,0.013496899847058973,-0.10967439497024037,-0.15079570874913484,-0.11300213372738618,-0.12055197796918413,-0.8720854960709217,-0.18916194025908686,-0.2381686869444624,-0.04651145343136742,0.07706238490673342,-0.19161797126104466,-0.5504142940662847,-0.0922702682205438,-0.42549986912440707,-0.23563278417575056,-2.7653988834255236],[0.33631367220063435,-0.2859112735053193,-0.2822463416673032,0.02450931746689284,-1.0357572668659614,-0.5775003332903302,-0.4084074947282918,-0.43804380237323204,-1.2432185247648557,-0.11377436893484029,-0.5505213367852072,-0.1341562767115961,0.41915018029206946,-0.8688370362861764,-0.30859668307530824,-0.2145086354178676,-0.12819285362381272,-0.5160094706309308,0.3868836529632888,-0.1546537674942723,-0.18779654896596681,-0.8652971968830823,-0.8467644982475284,-0.2767361550466599,0.05173528897424356,-0.5403835741040202,-0.07764296451177445,-1.2633480853822259,-0.42828824374703955,-0.42771491994623795,0.8960963847966323,-0.4489514192950196,-0.19835538674366257,-0.7057180163741799,-0.4019899231381884,-0.37238432335563204,0.3939348903948786,-0.11065558164199839,-1.0652429551964127,-0.3609801211621898,-0.47654574259695576,-0.5652318151500156,-0.49223860707867856,-0.18934006920580354,0.11805700413740434,-0.5157426826031158,-0.5359067271920501,-0.35844220052232056,0.31590584748837963,-0.4323223709434433,0.1782313946053497,-0.16369325275496957,-0.662089556893467,-0.23376387032704357,-0.9777722756285036,-0.9007162889865346,-2.2367318461148136],[0.6562174434722088,-0.7976304960631256,0.2048224809380673,-0.16454990319076268,0.23826564229883443,-0.12428567948184671,-0.9633733324884074,-0.5731379506832706,0.225565424746692,-0.8819116539968304,-0.28615148415739133,-0.5357104057213216,-0.16410459291335514,0.002838532655622486,-0.5938089965897156,-0.5124143155466343,0.022651114119228002,-0.12570704758175807,-0.2343636571284116,-0.11071191738467667,-0.11975339383061202,-0.23888195671704895,-0.17073171152076674,-0.7337605637190198,-0.12247679855244768,-0.30720049424760776,-0.9468398476872809,-0.6534738887662431,-0.5266249852098298,0.6574708958259169,-0.3393306830906496,-0.8743857436706695,-0.4287405908451191,-0.16104826060535515,-0.7999607705638404,-0.43815071779267867,0.24917969753597513,-0.3579902821648535,-0.420585324978467,0.7648552934621453,-0.9202405890176579,-0.8326932507428007,-1.4269913026241772,-0.28190379724882597,0.2060966416445453,-0.36527195823347824,-0.7175618572177982,-0.9515965232618462,-0.37641100530373334,-0.3444744964744382,-0.5316736576941878,-1.0468067093566817,0.12131197070017928,-0.8148368594534374,-0.17675539350672556,-1.0201842134223078,-1.550884252377652],[-0.18880059550393713,0.2895673223329642,0.4497717694621046,-0.5580541492611255,-0.8439859912536678,-0.08396294765864445,-0.7042308130534092,0.16375349459520064,-0.13590814266744786,0.0018333020149959305,-0.6620743573800606,-0.38653022768802825,-0.06821898785949398,-0.17814658426453822,-0.9848983940647609,-0.6042128552616143,0.031627744070605764,-0.6085340917359303,-0.7838358721275126,-0.5118065101181961,-0.5759790118929092,-0.31351939771199977,-0.0904935260289727,-0.519213382598395,0.07989937660009303,-0.34641150064110027,-0.43756846337469896,-1.0159987082669826,0.8190426774565687,-0.542015583603873,0.03963975519633033,-0.40880812901760066,0.3736520695621537,-0.7414545215354896,-0.5566733472088419,-0.4978829142212297,-0.012724787035010973,-0.48711075990098474,-1.209676762336126,0.7434253298639593,-1.240291129946127,-0.5532956949598214,-0.9388622037925577,-0.33822553633339536,-0.8992808643472648,-0.14516096322557803,0.7017052680717873,-0.2199384057916647,-0.21316640646581733,-0.5348602053877994,-0.7655938497534949,-1.2175482822960655,0.22948152283450568,-1.0901832405883003,-0.09878620695467029,-0.06980407524163343,-1.5214346131130212],[0.8571412414714945,-0.5766450915968477,0.2160400109095254,-0.45505543360267636,0.8275397091936205,-0.02244060816220113,0.2620568025582996,-0.332578649295714,-0.4977925286403566,-0.2245706992662982,-0.3528723868922841,-0.951265135483549,0.20848686285105927,-0.2381967412665033,0.17119793087071336,-0.8615010042153299,-0.24154038908578454,-0.7016096769674939,-1.0840775913734633,0.6786142282133062,-0.47983815601117763,0.30415590821928795,-0.1607538962732359,-0.9619954055160759,-1.2552990095672627,-0.7549188561473976,0.04323792080692407,-0.26666168343072943,0.36656867662966897,0.4291460643435308,-0.8466009330185278,-0.5589123597820468,-1.0289315421646956,-0.1690017805645382,-0.6426889281006136,-0.363898982424891,-0.4835536384833566,-1.005156742905813,-0.41817044949052945,0.4043901128449709,-0.8681396173682189,-0.01591753344409275,-0.2589137797000017,0.02602421200013687,-0.64267491354422,-1.078585235027079,0.22460809244646643,-0.08717895607127248,-0.4285788844342732,-1.125347329675834,-0.48268487528412674,-0.80728598947197,-0.3011159233896228,0.22262433821232994,0.16980968721503167,-0.647787285900376,-1.8515261038877608],[0.9059730388478628,-0.15386005333317967,-0.7185554618614868,-1.1461460303432018,-0.26156725923087293,-0.7268793050107948,0.4006555479051739,-0.31106169657982713,-0.2799779157524466,-0.9397330610442662,-0.23897661449826496,-0.7904242520401861,-0.017250160669424808,-0.04188457986670796,-0.26155892529236546,-0.4028316637096154,-0.18016028844967485,0.15649718674845728,-1.2212985282469864,-0.45685534115477777,0.08805906024251133,1.1673404559326974,-0.8458462772107961,-1.0417287004792488,-0.15544443102556219,-0.3969796478977761,-0.062192436932435716,-1.3522915618265088,-0.7376316648791628,0.9672396647161454,-0.9758458866315666,-0.5078332032377879,0.15481159216429924,-0.8240876350903422,-0.32421584741039566,0.3765860130098531,-0.8719212646659118,-0.9748877109833431,-0.49372332463940266,-0.8114382499022731,-0.41627430390045433,-0.4520292076911012,-0.6879901333782475,-0.7463671032199737,-0.47203286302896574,0.3727380908100897,0.2719690248717271,0.3432480291253191,0.2073020971616643,-0.015349725389330719,-0.17172071341735987,-0.3891605102461123,-0.4015265619654047,-0.7684687134949667,-0.5978160721635928,-0.21684994603177876,-1.8144448989458593],[-0.39730938396693294,-0.18605929219098624,-0.6836273336274454,0.30284099289077193,0.3892455340056253,1.1475644889315582,0.04829496788209316,-0.6682620694420242,-0.24258943250074338,-0.4676342597066454,-0.1521192425049394,-0.01334612880143232,-0.9188181732323413,-0.2415038057149453,-0.5773757934377091,-0.32930247785246475,-0.3021411768166601,-0.3171127746518136,0.6990241966229395,0.09693674104618634,-0.6670604403457653,0.015912084911065782,-0.6394931912206634,-1.5414673453587886,-0.46566307294303905,-0.1661680942226703,-0.0911349164781077,-0.23152081721985174,0.6346367280579452,0.7715227841825847,-0.16135779518575433,-0.9316572439974832,0.3541220540092685,-0.8267735525904715,-0.41156151446520817,-0.9942062670491522,-0.1865908526183727,0.14555941680328802,-0.2552631015760044,-0.6149170795898818,-0.4872007654629919,-1.168562813665865,-0.8809561453313585,-0.9472490585859971,-0.6716290897965236,-0.940963132110994,-0.38099420169296194,-0.6262662718216392,-0.4556757012952751,-0.06268505337067086,0.02941835158786842,0.095773878690895,-0.580107627851541,-0.4135419699548151,-0.3020938683801337,-1.1848153277997822,-1.3634173772317508],[0.24165913014001972,0.976192932056036,-0.38021280074346986,-0.8808107843844464,-0.6828851022815656,0.7626647348161094,-0.0955491401118634,-0.6409103883876277,-0.2283928257819187,-0.9156643709962233,0.16754032593412288,0.7122124192839326,0.15148064127788793,0.1374403829759432,0.25292077504894495,-0.8561856303130883,-0.2579391818274981,-0.04564564049482585,-0.7691086063941142,-0.28368145978554254,-0.24568207281251309,0.4891936858673131,0.39219977016708735,0.021808807196485924,-0.15047653247607945,0.11893027516319882,-0.18187114684920874,-1.1847114306569897,0.24777105281738754,-0.8979130497756713,0.27762748292236694,0.7519458281152557,0.15226589663970172,-0.3451757541378099,-0.08091046266753502,-0.6381726746032684,-0.24797651386574293,-0.24036105609648906,-1.0102209177011423,-0.9378567812720012,-1.4077861852509255,-0.5729137128262658,0.0025002586713691157,-0.3290336723159954,-0.6288690830061487,0.1486949830482901,-0.6687362407069735,-1.1272432247121549,-0.06008243670430145,-0.5868059841725668,-0.9498106893433089,-0.35253140120050974,-1.1160798870225999,-0.06666221606225706,-0.22587940840985724,-1.1321792295867883,-2.507521388096613],[-0.19117686018410252,0.9732244091143248,-0.38166172393921044,-0.7595710459019231,-0.3089754543590988,0.11265387657941145,0.5430198466053124,-1.0269493710266315,-1.0806375125958225,-0.34948648903502594,-0.31263458539133443,-0.6556629121281475,0.17901893311173941,-0.8071159378250536,-0.9861517849344449,0.0014380427748004422,-0.8624340867258817,-0.2016610029299399,0.034695851096316746,-0.5646031729600507,-0.6360649411492331,0.2678986107268128,0.20329398508203123,-0.06908857935797555,0.3424129622143583,-0.9419895852794055,-0.2676470868246366,-0.5262475787673937,0.9354735231151632,0.33453031278838236,0.5363351347988411,-0.9810136072241608,-0.11395570624635762,0.41027309781712057,-0.6962956408781301,-0.7677381508720303,-0.9231257634942717,-0.19901170529915152,-0.40092566467722607,-0.33129020670722603,-0.019742331516228236,-0.15643798426982203,0.028119415203622808,-0.6656292079788827,-0.15118051958585313,0.20059794464100572,-0.9378658312155691,-1.0564870024744182,-0.09649763374456093,0.24369325027655572,-0.7595955258751536,-0.9207525427208249,-0.3393787120285497,0.3147869142944931,0.028955531295534673,-0.18579695970842058,-2.595298958120389],[-0.7148059947395085,0.604655717671269,-0.9617993217907187,0.8924361619548669,-0.982958413634653,-0.7751573727648431,-0.06729493901948902,0.21956343431534275,-0.30189036451198314,-0.4194938202398947,0.988459478338336,0.24081997414880796,0.7797018221870657,0.009281599814342734,0.1001125111091914,0.6276426795850518,-0.34566442089075866,0.9023864344854338,-0.8468739098362827,-0.7065847213028247,-0.5779558896585011,-0.3080869629303329,0.9969002894299088,-0.8981715441323218,0.022689349641580536,-0.9427694960330828,-0.2558099951637416,0.8679779679313313,0.3468936929479647,0.6300878530832994,0.24960076254484376,-0.4820224616445842,-0.9149841438216946,0.7639447461723663,0.4545814721490704,-0.3109454715345866,0.9966379176310987,0.3015881356965071,-0.6790881430470127,-0.12032061280004569,0.1917035468478665,0.5565179928763375,0.0011252111482134008,0.5444301685901383,-0.20523712379571168,-0.8265728136843802,-0.5221121788802972,-0.2519056315308049,-0.16103887235466674,-0.3418024945391528,0.825091314776236,-0.4919808167777364,-0.40119971129892085,0.3332954931317449,-0.9994931121184168,-0.4054399842406641,-0.49897406641443154]],"WeightOutput":[[4.517495093263249e-8,7.797494090921395e-10,-1.3821193557695583e-7,-1.8476308786332566e-8,1.5584097546231372e-7,-5.424208760175522e-8,-2.9178361836480218e-8,1.7076480403510526e-8,7.668919236156615e-8,-3.085947655113122e-8,-1.6218895876856325e-10],[-0.0966494889850568,-0.028095312606272564,-0.05381854677281617,-0.058092024479758586,0.07217712189317395,0.04069073732430991,0.08553755764646713,-0.01729379110194686,0.049441750996847646,0.009600364422840948,0.00298293018487071],[-0.11529576116356376,-0.17862219777859473,-0.07532240754386972,-0.010334505079291081,-0.004454544777464134,0.16324875512413245,-0.006444673123391905,-0.16128075069336154,0.2501687596841363,0.0585749135668858,0.08668922459620461],[0.017447159674217335,-0.46027833130585455,-0.18581416314415417,-0.039873553794896696,-0.15668521912448075,0.4930207101045863,0.2896405304419235,-0.30875813738077434,0.08377507506232988,0.0714734136890403,0.05432648688950295],[0.19449793648759672,0.666995838988933,0.31495557398689106,0.1083001434454541,0.08896213577514521,-0.6969600254813357,-0.3687333184517439,0.48733262313934017,-0.38338584138295484,-0.13964858872231384,0.8560013588731253]],"ErrOutput":[-3.550587232325997e-11,0.004095396318098203,0.12159265965668303,0.07670159578325751,-0.20238965163647527],"ErrHidden":[-0.05240182610446358,-0.19211126999310824,-0.08736329716351793,-0.02645342324876472,-0.03024920449212725,0.19891999628417967,0.0964301937338935,-0.1418861870301249,0.11465140566101567,0.04091474527620795,0],"LastChangeHidden":[[0,0,-4.9696012839375764e-45,-0.0000319686244140482,1.5227455663964698e-218,-0.0000012477389238176695,-1.4635196097616843e-56,-4.517674951487848e-13,-8.54288923051496e-9,-1.4219520511622893e-10,-0.00003206200469484281,1.728086002342957e-9,-1.767879796751304e-11,-9.167073852358773e-8,-0.00003320598358613524,9.837983185614958e-18,-9.177806246933117e-8,9.00971996809122e-13,-0.0000012477566032860752,-1.4219521496605082e-10,-1.422305762306971e-10,-1.0172768302248408e-13,1.7117592635976125e-9,-0.00003196689667727476,9.775267088448252e-19,-1.0192452140698024e-7,-0.00003195995642078205,-0.000033309618615786115,0,1.757506362042394e-286,6.35020040592838e-21,-9.338028067476467e-8,-5.32533626332507e-64,-6.814802548861197e-9,1.4690006329494071e-34,-0.00003195995551993085,-0.0000013395160853149983,-8.543339517617005e-9,-0.0000013411364329934553,-1.0172866057719329e-13,-2.280097425508752e-28,-0.00000133951743749502,-8.5428885502266e-9,-0.00003205160951654726,-0.000032051733720969536,-0.00003320782034826434,-0.000031968499309453073,1.7116575349306849e-9,-4.5108819661842534e-13,-1.7191670166646196e-11,3.604058183007819e-14,-0.0000012478643416001223,-0.00003195995642090285,-1.7228389075377323e-11,-9.33974724657375e-8,-0.00003196862386310423,-0.00003330803317596514],[0,0,-4.582895413497463e-44,-0.000008802380528848915,2.5366989325565723e-217,-0.000029878952134027533,-5.844373272214338e-55,-4.048736178399446e-11,-6.722688411955302e-7,-2.30409180149994e-8,-0.00003087081363585541,5.37316486277271e-9,-9.593728130011718e-10,-0.000022064015134441166,-0.000037982475436191084,2.724657256752531e-15,-0.00002208518588851464,3.930111894949301e-12,-0.000029879911513020733,-2.3040920743314152e-8,-2.304902245901455e-8,-7.458026747376304e-14,4.45820061883472e-9,-0.00000879704776392189,2.3861488166053547e-19,-0.00002274074634786301,-0.000008107981492661746,-0.00006072763563905168,0,1.3547588395321748e-283,2.456681300277604e-19,-0.000022068433105783147,-1.0830883956395432e-61,-6.668956674244567e-7,1.00959748299767e-33,-0.0000081079775637661,-0.00005196413409242686,-6.723093095242347e-7,-0.00005194830414157007,-7.45805073427261e-14,-1.8559941096807027e-25,-0.00005196417850221558,-6.722688322869895e-7,-0.00003017104536491003,-0.00003019317164761028,-0.00003800906376491677,-0.000008780250326164984,4.458126038081708e-9,-4.0478457164696946e-11,-9.107837318293406e-10,8.110624248013899e-12,-0.000029901114626018798,-0.000008107981493877995,-9.189032638929182e-10,-0.000022069343890734894,-0.000008802417008797081,-0.000060745343872168975],[0,0,-3.6486272147200514e-44,-0.000009434617958247871,1.5169184517416527e-217,-0.000006984393018184655,-1.2183881392660148e-55,-4.100518340347334e-12,-7.436392824155465e-9,-2.6579306659361163e-9,-0.000009527252677417239,1.310773148048279e-8,-6.733225531073692e-11,-7.959444863655312e-8,-0.000016395934179762434,2.545345415070593e-17,-8.212234005475473e-8,6.564987542483653e-13,-0.000006984460351399663,-2.6579306914000604e-9,-2.6584575141999424e-9,-2.576452368772297e-14,1.3045155257240205e-8,-0.000009421514299392597,5.745046372867826e-19,-1.0007586704201193e-7,-0.000009424586314733008,-0.000016509050470784796,0,6.0422730737980885e-286,1.240407799033267e-19,-9.263471805190356e-8,-3.2677268308988584e-63,5.67133964092591e-9,9.502484888147339e-33,-0.000009424585659352259,-0.000007066514701740762,-7.440490254725139e-9,-0.000007077090971035722,-2.5765098470731682e-14,-1.4758469080521538e-27,-0.000007066519458890722,-7.4363918389820986e-9,-0.00000950411395892107,-0.000009506708555082356,-0.000016411574559811894,-0.000009432022707689996,1.304512949201769e-8,-4.09953376518166e-12,-6.270491459782888e-11,5.278075227683296e-13,-0.000006986991813559496,-0.000009424586315851013,-6.323370602037496e-11,-9.269742408452325e-8,-0.000009434621376476355,-0.00001649860476841076],[0,0,-5.214693347688191e-46,-0.00000394923088938352,5.370135146665201e-218,-0.0000029647107534569566,-3.615178654402763e-56,-1.4165292763013885e-13,-1.1907242375443358e-8,-2.2837238493501916e-10,-0.00000478424011729851,8.688289743562997e-9,-2.986680177303533e-11,-8.26353015203939e-7,-0.000006893174626441104,1.7784312104266366e-18,-8.265219244430168e-7,2.3400991206721733e-12,-0.000002964740620779725,-2.283723867379789e-10,-2.2850173245613888e-10,-9.483733807635771e-14,8.66090417107891e-9,-0.000003940542645911067,5.839235314107945e-20,-8.469189509970835e-7,-0.000003937124776612641,-0.00000774875209469287,0,6.335109622266285e-286,1.4408443664197798e-20,-8.3500922789507e-7,-1.0653268450032078e-63,-3.2189521091402694e-9,2.1687772574038842e-34,-0.000003937122436533448,-0.0000037912303378008426,-1.1907382962904483e-8,-0.000003799749707564545,-9.483739650552758e-14,-3.511196652551233e-28,-0.0000037912328190500698,-1.190724185264484e-8,-0.000004763448054883183,-0.000004763644586225017,-0.000006902034306673059,-0.000003949032018485214,8.660809333667996e-9,-1.4113021236262735e-13,-2.95958031464388e-11,1.298684726937584e-13,-0.000002964909540757802,-0.000003937124776632569,-2.9726194286391684e-11,-8.350388237181693e-7,-0.000003949228596098119,-0.000007740292318446232],[0,0,-5.0958847306016544e-45,-0.000009148573406698977,4.906027858331057e-218,-4.6784531596224197e-7,-6.67970433478646e-56,-7.513865940773005e-13,-3.2907689341993466e-8,-1.810954748935022e-10,-0.000009243888343581163,9.57893168190757e-10,-1.2524165182099346e-11,-9.437034045220909e-8,-0.000009582394341330363,5.08354324196148e-18,-9.452736524394219e-8,9.992181437289378e-13,-4.67857840323902e-7,-1.810954799857806e-10,-1.813219224961724e-10,-2.4044804185658285e-14,9.471194061898032e-10,-0.000009147616240680159,-3.3628503919896176e-19,-1.282243764247702e-7,-0.000009115496144586303,-0.000009711564110595623,0,1.6957042789275906e-285,4.984569118832355e-21,-9.531493689605582e-8,-3.861128332845083e-63,-3.1949795971891846e-8,2.3756306626363075e-34,-0.000009115495145353931,-5.623716819880346e-7,-3.2908440339332166e-8,-5.631720260210526e-7,-2.4044468000850693e-14,-2.735421984787614e-28,-5.623734323769915e-7,-3.290768914041879e-8,-0.00000920985418751808,-0.000009210022761474453,-0.000009583511009678916,-0.000009148403833712494,9.470953617168179e-10,-7.51184696443862e-13,-1.1546335723235262e-11,2.2664442633174701e-13,-4.6801538945398995e-7,-0.000009115496144572075,-1.177318239161985e-11,-9.532648321756203e-8,-0.000009148573134818225,-0.000009710788064106663],[0,0,5.370443899801655e-44,0.00007799685817216537,-1.9262999032822018e-216,0.000016861122239223474,5.305564021070828e-54,5.276851601186254e-13,1.066293517574455e-7,3.0009939131563726e-9,0.00008111250914449626,-4.5139634129115735e-8,2.3845884447721046e-9,0.000003072931148696486,0.00009470793866582909,-1.8168228327493593e-17,0.000003071165463158997,-3.720468358968169e-11,0.00001686350683402242,3.0009939314746024e-9,3.002970206139309e-9,7.317729724842199e-13,-4.279277168105911e-8,0.00007795171832739568,-4.655050901620896e-18,0.000003222318043726218,0.0000778896091917614,0.00009797301248063158,0,-4.2043169255105484e-284,-3.067003384745931e-19,0.000003115650972172994,3.7476387173486914e-61,6.148971126049084e-8,-9.127205265002986e-33,0.00007788957198724006,0.00001993225049769904,1.0662986654002191e-7,0.00001997915728504019,7.317776277342589e-13,3.9489244907221386e-26,0.00001993228822385785,1.066293453849513e-7,0.0000809601577346508,0.00008096074017134988,0.00009475135034058479,0.0000779962385373086,-4.279203990312468e-8,5.213174746518908e-13,2.3820844891423155e-9,-1.982642810480196e-12,0.000016861739680791752,0.00007788960919192364,2.3840734948298626e-9,0.0000031180330568245397,0.00007799682076336664,0.00009793087436158405],[0,0,9.84480078990608e-45,0.00002866924920283496,-1.1669327697466957e-217,0.000002085867606468251,3.468817277010659e-55,9.615749746985476e-13,9.439183289019715e-9,3.5341950344416594e-10,0.000028787778988990467,-1.3793995875450632e-9,7.724370951428086e-11,1.1723864272846052e-7,0.0000307440856461056,-4.493995131337417e-18,1.1743884451682754e-7,-1.132259534102026e-11,0.0000020859448511964138,3.5341950806499924e-10,3.5372866887491236e-10,9.736539423805472e-14,-1.314439025226872e-9,0.000028667870666429336,-1.3289661147572687e-17,1.2798125160830425e-7,0.000028659532477665996,0.00003087336914995617,0,-5.336974148514295e-284,-2.3563746110102463e-20,1.1852978616852527e-7,4.885584130567942e-62,8.059782691495633e-9,-1.1216901485383091e-33,0.000028659521155070675,0.0000022032951283896346,9.44014283072469e-9,0.0000022044736768000684,9.737868451253036e-14,7.59230151996567e-27,0.000002203307411536956,9.439182265750423e-9,0.000028776694186842314,0.000028776960408147023,0.00003074567753064217,0.000028668971659931765,-1.3143416465187959e-9,9.605651229826838e-13,7.597298686907292e-11,-3.1017081308912435e-13,0.0000020861457023691113,0.000028659532477666016,7.62841543473625e-11,1.1860575915554243e-7,0.00002866923874441825,0.00003087234413042835],[0,0,-2.71995489900501e-45,-0.0000031881820467058107,3.748979562544654e-217,-0.00022630268229406944,-3.9214145904730786e-55,-1.0905290851326661e-12,-1.1941479252947934e-7,-5.624717448864106e-10,-0.0000037877869307859553,1.0923942757373638e-9,-3.3948831883359933e-10,-5.988517359659204e-7,-0.00022937046588256723,1.4693061707475572e-16,-5.987390828962989e-7,2.5254727309940416e-12,-0.00022630302178532655,-5.624718918638405e-10,-5.652364369894768e-10,-3.1741268164156793e-13,7.565188735956563e-10,-0.000003187090422001675,1.5770190325017423e-19,-7.190232864414374e-7,-0.000003068540103973822,-0.00023009024238914647,0,2.7882255578672404e-285,9.093537525473832e-20,-5.996048837675531e-7,-3.082253068548206e-62,-1.1832239516863823e-7,5.823824930708867e-33,-0.0000030685375788137476,-0.00022690141885149304,-1.1941587657554292e-7,-0.00022690262558196271,-3.174128395718512e-13,-1.0853406370272358e-25,-0.00022690142246472233,-1.1941478944421768e-7,-0.0000036670551192509343,-0.0000036672797501510578,-0.00022937144923700295,-0.0000031879548937306963,7.56201460665149e-10,-1.0874440283420905e-12,-3.3563324464284506e-10,2.7676303205636367e-12,-0.00022630290744898556,-0.0000030685401042864785,-3.384039598182675e-10,-5.999405173248988e-7,-0.000003188180294202284,-0.00023008971355389368],[0,0,1.164314687996665e-45,0.000004953152461533674,-2.4517453501858637e-217,0.000014540654444255346,8.522293863608762e-55,1.886333157932373e-12,6.811688467832008e-8,3.0389136054177614e-10,0.000006507310877547077,-1.2704885269819638e-7,7.727041386442332e-11,0.0000014271915092480215,0.000019298483206577446,-1.2979596773034088e-18,0.0000014273428200919598,-4.7529723094919305e-12,0.00001454073171507919,3.038913619465023e-10,3.0396843557867394e-10,1.0190805303330346e-14,-1.2697822117871487e-7,0.000004826105481890113,-1.0652002341706123e-17,0.0000016222819392064867,0.000004884806980435698,0.000021047736737867883,0,-6.593708283871177e-286,-1.9185956697921644e-19,0.0000015541584133486992,7.597485189876097e-62,-5.8931968420608005e-8,-1.4566495344533002e-33,0.000004884802230138531,0.00001596799251137508,6.811876752422102e-8,0.00001609488824517052,1.0201457397164991e-14,2.191133378428568e-27,0.00001596799915294452,6.811688426693628e-8,0.000006311921296733461,0.000006312145140982569,0.000019425690011700055,0.000004952923867377777,-1.269782109770656e-7,1.8859325337739383e-12,7.530701742697069e-11,-7.747455583633085e-14,0.000014540884833980374,0.00000488480698311084,7.538488187057841e-11,0.0000015542337230413751,0.000004953149584681222,0.000020920993659778075],[0,0,1.681544057772158e-45,0.000002402631274873474,-7.862862660841353e-218,0.0000025925192229596856,2.1287124583988456e-55,3.0230254823568483e-13,1.8294738824280125e-8,1.0374152789401558e-10,0.0000024191709674234943,-8.084465965280439e-10,4.941166371569171e-11,1.5781082479256023e-8,0.00000497604132212436,-2.47996306817847e-17,1.578631846692838e-8,-4.4115352509995997e-13,0.0000025925686350120188,1.0374155271025837e-10,1.037574406240132e-10,1.2056643235282722e-14,-7.597779754790428e-10,0.0000024018231180732826,-3.299759791855079e-18,3.4835174013420744e-8,0.000002384281876721984,0.000005011635542695613,0,-3.8149965379706976e-286,-1.0800743118594206e-20,1.65396925419344e-8,4.171445164972067e-63,1.7486291817617427e-8,-2.2870278597146066e-34,0.000002384281435579811,0.000002608305100273083,1.8295040291907736e-8,0.0000026091080256728977,1.2059943028608484e-14,1.4039030966744e-27,0.0000026083058433271074,1.829473841084568e-8,0.0000024000135638322565,0.000002400067782826238,0.000004976855747765906,0.0000024025766151441816,-7.597659155252133e-10,3.018924306445462e-13,4.90934765256301e-11,-1.629805923820621e-14,0.0000025925741561839275,0.000002384281876733336,4.9110181408927916e-11,1.658878602982858e-8,0.000002402631123934472,0.0000050109311395295465],[0,0,0,0,0,0,0,0,0,0,0,0,0,0,0,0,0,0,0,0,0,0,0,0,0,0,0,0,0,0,0,0,0,0,0,0,0,0,0,0,0,0,0,0,0,0,0,0,0,0,0,0,0,0,0,0,0]],"LastChangeOutput":[[-6.4688188789865735e-15,1.1054694449468097e-13,4.882536046494298e-14,7.115380551220455e-14,3.0788811377772146e-16,4.325196082031296e-14,3.977987109343632e-15,1.1126944424231218e-12,8.103584318829497e-14,3.920933377413383e-14,1.1133316760215753e-11],[0.0000025934386618428537,0.0000011850431157854516,7.339801426082466e-7,0.0000011350038941706857,0.000001310063561905884,0.0000019723848329357325,0.0000013024826337272818,0.000006183432739783607,6.733774732758062e-7,4.668345674949589e-7,0.0011494800705911144],[0.00007763805939307304,0.00004158677639933653,0.000023880018343501165,0.00003717119947716837,0.000039313889953946496,0.000061013581595054336,0.000039272495697924445,0.00022932118884654338,0.000023189972888403605,0.000015540279811846657,0.03496839779722585],[0.00004860725884077721,0.000022786404958909273,0.000013853722704015508,0.00002150877358450498,0.00002456556101475919,0.00003710147540379375,0.000024426374064757027,0.00011803382339577028,0.000012813857845029864,0.000008825680298556018,0.021580566928208866],[-0.00012883875687135982,-0.00006555822483704597,-0.000038467721349714197,-0.00005981497718863587,-0.00006518951453009047,-0.00010008744197172383,-0.00006500135240794068,-0.00035353844863135144,-0.00003667720847234877,-0.00002483279480619509,-0.05769844483128362]],"Regression":true,"Rate1":0.25,"Rate2":0.1}
