{"HiddenLayer":[3.0851920813860804e-12,0.004413513782231349,9.708196400788638e-10,0.0012666315965206944,1.8748375318104972e-10,0.0008011648035860328,1.516881187394948e-9,4.061966760758473e-7,4.670077677099775e-14,0.0000015437131309404667,0.001227594185592512,0.010082879169320786,1.4525353815956436e-10,7.289765944307194e-18,1.3198863872425145e-23,1.3748710119028917e-16,0.0000011480244387722907,1.0071130743986825e-9,1.2170709065654935e-8,0.00042444336430132385,0.000004862263957748458,0.004564039234078371,4.624348608823316e-9,4.459919697003658e-15,0.000002740893867544377,0.0007312649822178872,0.025195114212923465,0.000039074626978850964,0.000002492455813501452,4.306527873313278e-33,5.447997608838427e-9,1.4990147217571606e-13,8.161725703050805e-10,1.6332430932354468e-25,6.646648013774634e-12,1.118279122771541e-40,1],"InputLayer":[0,0,0,1,0,0,0,0,0,0,1,0,0,0,0,1,0,0,0,0,0,0,0,0,0,0,0,1,0,0,0,0,0,0,0,1,0,0,1,0,0,0,0,0,0,1,0,0,0,0,0,1,1,0,0,0,1],"OutputLayer":[-0.00205513039052468,0.12991044748905567,-0.005731844140297076,0.8778765270417664],"WeightHidden":[[-0.4331977998485824,8.722094447932584,-6.502891846634641,-9.553971130999347,-2.7759849027499435,-6.382194255723851,4.253422322706355,-1.70762402927051,-3.9643362782249474,2.5047372253056106,-7.295893517684274,-4.5055394543272245,-8.70274370960901,-2.448045210084957,5.196919465053459,4.845984493926559,-10.638014973549767,-2.626636861068945,-8.427683957795578,1.9312076962153888,-1.128690226561572,2.9739084752132356,-5.624083955385437,-1.7258760702942506,0.7830289313371931,-2.6080672239470655,-1.8571710189293416,-3.8895052450677183,0.06548230604739835,2.5390554948529465,-2.921235914910046,-3.182035818266966,-6.525258764485466,0.38768828375855374,0.8028390518439634,0.5565262736141133,0.029261556261413545,-0.09855810596927388,0.8745322978321929,0.949967139494824,-0.2744236051273081,0.790963432989357,0.3175305889629284,0.6816312822512228,0.03937900654592496,-1.1625937488930167,1.0808772685074384,0.45533110467652865,-0.15099446172699468,-0.41302635001936816,0.6070812926787045,-0.20617132969102525,0.8310769217706897,0.6829414397296409,-0.8050519863962867,-0.2670186094922342,-11.504392217428004],[-0.9096324309533603,-1.0179368071540897,-4.726160951352196,-0.13027535556698583,-0.7147029145183287,-0.33632492268888053,-5.363150465264296,-1.583542422733153,0.5391535655378633,0.32792027096361104,0.3357147735983944,-3.7315606601405147,0.27315919307702574,0.4150522949758347,-0.7713373511201096,-0.5159769161407697,0.8703525662834467,-4.70481615834651,-4.339957568961121,-0.22013112890607106,-0.6275379729006465,-0.2617164867552035,-5.655187143513915,-0.7066137538939183,0.46207205485976094,-0.9747877221913336,-4.141426809442703,0.5576918456796743,-0.32767283592439567,-1.9089373365600195,-0.1214995084583628,-0.5018385610509752,-0.46279247681719515,-0.33685249458475003,0.3420031291265027,-0.18763921879324147,0.052100584457209324,0.4896729660615359,0.012283350547024181,-3.141440101800324,0.010299805242862274,-0.1722394666581172,0.11953886823391416,-0.09721942306938391,-0.03219780093858623,0.31892628936331313,-2.039707944415247,-0.7698466184345221,-0.2715280816882056,-0.3174113557369186,0.11874544682641966,-0.29333356319293447,-0.10617623775917372,0.08438074219185758,-0.06766540857841312,-0.089476982294332,-5.406486964513329],[-0.4758215078035687,-1.0163254598416254,7.458783509961423,-2.1777435934403755,-2.179098132650471,-3.6618230899925974,-6.757330503691756,-7.0898035667416295,-1.089888319137057,3.964014483348823,0.536094374068543,-3.391541742984666,-2.14613384616527,-2.174070483514273,-0.28366649393264326,-10.93881368686063,-8.650826545845401,-1.2879556738357156,-1.0292800857005546,-2.1566911252307084,-2.4722153204525035,4.903872547646393,-9.938367198897254,-4.418291782447119,-0.9280074431693296,-9.140642308315458,4.950221479366473,8.490003097734075,-0.798982126185058,-9.454636551446578,-5.142216225026838,2.09650430035604,-5.3454189783251245,0.617274458015545,1.1570549997731592,0.8596735898808432,0.16840847316788185,-0.6777762895034606,-0.14755354284546585,2.6970922058603626,0.9457516482321415,0.8973369226111132,-0.995664836671762,0.8945062202326111,-0.7272777585419212,0.8600318769087466,3.421144103429545,1.168404848822765,0.25759783126042807,-0.8711604504976638,0.7666363644716381,2.06243600841181,1.0498814438001038,0.40513431725334154,0.31143604118138574,1.2662668840586682,-21.346889986164715],[0.8713945910826615,0.9398584590812638,0.6117489654186374,-0.08616953510016799,-0.5703890001360004,-0.6835705070045087,0.1284592046478763,0.1148898351741526,-0.1226258588115512,-0.28798137801377455,0.050916750370890815,0.2666546291868533,-0.23490492334972135,0.005160008474011274,0.07395879698002977,0.2159217668148216,0.29532004000562556,-0.3050617812511477,0.12680690152537533,-0.14081939187011083,0.22484465271816484,0.4145039746616532,-0.20637543823425725,-0.18103377889427794,-0.14791320285520618,-0.1977077468134455,0.06160611226670982,0.36169949056864265,-0.8479731543296157,2.035264883409645,1.328398589634321,0.24997409371064375,-3.842660082562265,-0.42515761697926524,-0.48709254651016276,-0.22613160588686593,-0.14543204017765107,0.5371098391958269,-0.16515539813113606,1.0049081998409417,0.2217150700518366,0.7237792908813493,-0.0546116191240136,0.7275044169975624,0.18607604582477535,-1.9593155075270134,-1.2562593197559193,-0.046354002125858836,-0.7789059997264611,0.4454528335878078,-1.7503237504472784,2.504991884020306,0.31708521983789173,-7.027846994692748,-0.08577918248612837,-0.318409366777597,-7.683496234735297],[-0.6034275393753414,11.14325501851876,-4.030016747625467,7.404944076540766,-0.501319454827013,-7.1318167035617615,-9.297911824065752,-1.1081145877905856,-1.1549926852348202,4.695355415671527,-3.171042124200371,-2.712841227793985,-5.8489021377459105,-2.794744750250021,5.001849161955297,2.134677225072618,2.9561299379745205,-4.333775501293925,-6.479987942381165,-5.7524853111820855,-2.2666647430362237,1.0353100270453526,0.14016512176003842,-3.1175088350476123,-1.0863021170284965,-5.401484962826521,-8.11600939165038,-10.650874413999754,0.5637283922622904,3.8304843661665458,-5.419376235529717,1.3706005101840963,-0.04774029660182786,-0.0731581291854682,-2.2417939931602446,-1.6990465004809494,-0.18851057635904517,0.16265548919579728,0.6907236761503859,-4.306333289280792,-0.6970232279596061,0.0537032867753123,-0.120355213054705,-0.6860462447098173,0.5937385550349609,-1.1904983552496045,0.9469426707008415,1.1868864025902603,-0.9343983515576931,-1.7267854831437917,-0.4108620431697328,-0.4303594507824203,-1.2503130572748047,0.31031017387457055,-0.1309330301521056,0.14759463526572297,-14.23553999965231],[0.9859512669876223,-2.44543914347794,-4.2296748348780815,-0.15716472103302692,-3.2168072417146467,0.18200917132763467,0.5289064089448019,0.08458862849466854,-0.18841419594385778,0.3619195582830032,0.21510692545672438,0.630279589565539,-0.035867595261875704,0.11395243779604791,-0.6060337346370993,0.6859630680853874,-0.32901751767641446,0.4010824458867839,1.146449197740683,-0.24772602430566146,0.02855715515240324,-5.05840216096771,-0.9424995706307067,-0.5693213501844636,-0.28789861596779376,-0.26426879249045715,-0.30051752619102845,-0.386683396144129,-0.2954176430476666,-0.32644743040714386,0.267419840328407,-0.2848071209159843,-1.4451787004797843,-0.14558666247305993,-4.5603792546427195,-3.4659068300687235,-0.2673126220443263,0.26897265892082817,0.5617971697610327,-4.17987686122391,-1.0762909216027137,0.16561276624604315,0.1935825898919938,0.023474634770377093,0.1723072679234667,0.44166809990783723,0.004910427101579614,0.052340956998520774,0.2384563721949998,0.4041514674253886,0.3213318829602881,0.3390528957717165,0.36904659488421493,-0.4122685622175173,-1.036621344692761,-0.33014338600012866,-5.731181283145481],[0.8699196484392175,-0.4519463078714579,-2.3741108319075566,-8.280342637097332,-6.853279063884234,-4.218260089243618,-3.3306745989095075,-1.5583509333555041,3.7049083063880364,-8.520551678006534,3.57155423209411,3.5164354006546117,-1.1676236099515627,1.7568750333184613,-1.2842089414753048,-5.61001207579996,-3.3283123759601163,1.1603598833619682,-1.0054589800262885,-7.612754373012062,-3.4176243473489323,4.8157876688347505,0.4820764609873045,-9.663434297475867,2.1948466009604672,-6.968798435684419,-6.9512938556865995,-0.4302020734375402,0.32547465584159996,1.1426281435382089,0.5063746730474027,-0.32894594755196876,-0.9967750607520625,0.6529801530126904,1.0991022102408772,0.13861684298969143,-0.35983634107439494,0.2335585347711367,0.07508390628719641,0.93530278453109,0.05563062822215238,-0.729015544168834,0.0008092463040253919,0.2281154511311081,-0.09338703572617986,-0.3291204535139481,-0.28379469891498554,-0.04270965188614859,0.19943271194706144,-0.6026000963980519,-0.5486264115474283,0.4253072503039668,0.2514009215330809,-0.018384767822017173,0.2772998763403186,-0.09562256108078593,-10.118895372703033],[-0.4450512908571891,2.884259547923666,-2.659629297460276,0.7659824407549325,-2.8662379580918302,0.7976756864487163,-5.553944967824483,0.8199499115087475,0.09446901035924808,-0.4860303306878161,-5.559191975937563,-6.676989285095869,0.6356827837976929,-0.25157521478972655,0.38757154996065873,-5.451801154485055,-7.222064430826523,-0.35154297586119493,0.7979659778325847,0.878678113889545,-0.8956866473295848,-0.7135080872807117,-1.2446223500111102,-2.3370935710647274,-0.5920382294887098,1.090697552784345,-0.5309843508042678,0.9501331448361434,-0.5386636480355673,-0.9070906479144675,0.19524618957191958,-0.06591837441505169,0.06418803868395297,0.17563238978442938,0.22506913051862112,-0.04764606735054712,-0.24881231886476834,0.025725797083628058,0.10708273923849677,0.1424610107275218,0.045091688403123394,0.0599157255876335,0.08296108714894004,-0.22126581167524934,0.33931307261018634,0.39388349756585467,-0.22914683523900592,-0.0954686994710834,0.2894146725383183,0.11410561476176907,0.052296581407461885,0.09697855622133204,0.008901673775381157,-0.16757716270166995,0.09366965035771678,0.16210909893784053,-5.980555204466141],[-0.19417797104957368,-0.599179066705347,-0.3324110837742262,6.703973466012089,-0.8592387637800051,7.67480741951693,15.038470010155995,-2.916571836897529,-1.1096537116152771,2.755004193662495,-1.0898452426218608,-6.981879984638567,-11.858888084169598,-3.101644003731411,-5.856679904512021,-0.689517420004911,-3.1824410310156273,1.6959615662105048,-6.8533231296692225,-5.0826236647955465,-4.498901188829687,-12.016290309194803,-2.428774198947679,10.233857966919134,2.3335122155970067,-10.825525069069927,-2.1379050210616652,-10.08558818187047,0.22400309325808498,-2.490064031261598,-2.015919705321588,-0.9742442103806759,-0.2126452626091711,0.34903732113261354,0.054869041531193846,-0.5055628055134613,-0.9358042231326504,-0.09803185302164166,-0.20247747607810596,-0.9802460418863244,0.5641407081711715,0.4578116885814901,-0.7017547022855908,0.15547504796201364,-0.469131841233828,-1.1996703303614122,-1.9084439339076873,-0.5680400735271578,0.5480780081712714,0.5303210423256195,-0.5834684729916161,-0.17177905210248265,-0.6474085582017557,0.0017272291947137027,0.9278750824012096,-0.8553568688864318,-22.807139996419814],[0.4616843315096597,0.3452280839079046,-3.677655307333727,-6.304223800515841,-1.657324600147999,-2.9416973157915676,-3.952891416207922,-0.39165943729007713,0.5067385263810661,2.1188883082576155,1.4525128167013126,-3.537628272145514,-0.42965364707220727,-0.17976411084442867,-2.384582021779994,-1.066607158303707,0.3583484925285941,-4.649854504879776,-1.528328285651214,-1.301326760599861,-0.31858362036525356,-4.409120527843431,0.6924144197432464,0.19404087938881592,2.0386233027254876,1.0947783539102667,0.8599458140342638,0.7396016864181117,0.7451122498082969,-0.07364510080166216,0.06443961775123423,-0.484550085354431,-0.5007119567128451,-0.12623082823480888,0.04700338462855955,-0.23432685503826653,-0.1709175661877056,0.12776332869792573,0.17283142645698182,-0.06787598225160972,0.016034579522931355,-0.17130934932319228,-0.06492722576546948,-0.025978581987298674,-0.04031072309550185,0.11702597943537861,-0.14537707870341832,-0.16112571663300734,-0.04135887219559579,0.23456126434926833,-0.15659855276417411,0.08135701430740265,-0.11444692493051187,-0.11115564701175167,-0.12156630807463961,0.08112464587939115,-8.224723721276334],[-0.1596347402078414,-0.19674176569873777,-0.6559901549575305,0.13235167209462925,-0.027000282280433458,0.35805643259805126,-3.796779048151083,0.5779486942588419,0.18996074521514894,0.871306938466397,-0.7391762986698049,-5.137888590181727,-0.3524193883142575,-0.36882686100155593,-7.5809220673859175,0.5595933982368997,0.4757125904591049,-4.993270135693026,1.8958768597775508,-5.68564641816243,0.7004843097982859,-7.318723650337259,-6.257870880623623,0.7676894947834382,-4.462885969827563,0.19887241344623496,0.7731210705686408,-0.7934049164976017,0.8784381422309557,-1.0154800571193665,-0.27175191642726254,-0.006036687128553906,-0.1756589088044114,-0.21385764504455793,0.08445704172862868,-0.04992343833606821,-0.06445938164142624,0.05758527485897776,-0.3093860111643088,-0.013571250336955118,0.370424063729124,-0.06153963998913651,-0.11593223587418812,-0.18421179060997425,-0.41448302780181956,0.024857854711043063,-0.40789187819045813,0.15309970898263428,-0.2320834886702255,-0.3455438537604662,0.0715912187166096,0.019776615366636788,-0.09242835193907985,0.021623330637842716,0.05877442291364298,-0.050918499002256944,-5.4532957502253145],[-0.6212389495354893,0.5707833849829098,-2.558417541032427,1.1504553823422072,1.990414275655284,1.2617170555297295,-4.063364745644599,-3.9803601335701195,-6.651038203124545,-1.4941025499646217,1.0461630861873221,-0.8311655580713464,1.0413829093098104,1.1124233876939065,-0.46634509783378547,-0.35431867917487325,-0.3071672784484043,-2.286827486995936,1.9599997986372457,-0.3763293340805777,-0.8743989679517533,0.9506336196573368,1.1781086409996724,-6.795719854436699,0.1783640591907286,0.826457145529633,-0.36539301048411926,2.7679023143389063,0.05774340543284162,0.7995242698918738,0.059941054777614515,0.16024201169332092,0.45901855009000864,0.12268547205809327,0.03466249877755874,-0.4196113203348165,0.16660815078998736,-0.20040760982945743,0.3490190262808457,0.8185261419873018,-0.08087976130813568,0.07274490159491678,-0.2996909033652688,0.12804202231032513,-0.21128206463963528,0.2931661605698411,0.2251883165152424,0.13207350078602365,-0.6048309734992643,0.0783709797416719,-0.22836502083609295,-0.1574992601319414,0.02306068330404909,0.21038239311425808,-0.12398257362340222,-0.17582859602072026,-9.280899547022083],[0.05953137946012421,3.2389110844417,2.5439899939919313,1.6406327802429153,5.0432006263937454,-0.2119908641217826,2.2747364521361013,-2.4917516137114064,-4.749022181910848,-10.474142764717646,-3.717305873682926,-0.8884546147155867,0.46666700404765354,0.31851489499387714,1.5896203412197831,0.6343133727573945,4.242013713971068,3.0766543219108695,0.7699298091000398,-4.493508968658997,4.7090044311049075,1.3455338346766244,-4.690327772642171,1.4760182179391494,2.040451874806124,0.6576915866596559,-0.2871267929551004,-5.746067978682969,-0.20768584550645408,-2.0131733649557257,-1.9732314070841062,-1.37987334094272,0.7536657379505725,0.638309243855116,1.9097219700622456,0.10642934625854046,-1.4762601433163414,-0.41191961652172027,0.31447199608506143,-5.255244591630412,1.2916807481395498,0.01191939556640175,-1.8839793016903779,0.759891427239031,0.23105084539808723,-1.6016528395360787,0.9564878714975956,-3.3236407148911438,-1.055682397689112,-4.93820753611797,0.628977055737533,-2.446958462621041,0.3782875470129129,0.30596675004944,0.9170786506440253,1.2186747286117827,-12.214690249010612],[0.04506073877906824,-0.5494376546775783,2.6964215081926897,8.423456225297436,4.963162522089615,7.369872983028013,-5.086595675949169,19.883408773689716,-0.5022799143512643,9.0719806459068,-10.914075791036376,2.0862305769292853,-4.800118450882298,-14.038169218794126,-7.113880952340581,8.048919989150736,-2.9897790463260576,7.5896905192884905,13.41405956798389,-4.299490226942213,0.7668379670558237,4.6091911908490415,4.085073808602867,-8.609627408489178,-15.611910155663828,-4.967778904878167,1.372394452945722,0.06492246913989685,0.575521030426289,-7.082210851934884,-3.51806502365606,3.9840774510480514,-8.522145351988804,-7.228434307744907,-5.272396226369211,4.318484518259469,-5.299618994313672,-2.645450763013642,-5.974098701407396,4.691108453630326,0.9837254205768783,-6.0060348948279785,-0.7172188822641417,1.9809121371075966,-2.3557152543681235,-2.3003070213970283,3.736118920544197,1.8577126854370083,3.4993074892353073,-1.2913948427833946,7.0179514758294825,-1.9308438033058053,3.7802759663560797,3.102772603723227,-3.906587500713059,-0.5954155779365226,-42.97679408584974],[-0.0327196022623476,1.5642767024924038,-0.7299366259937387,1.7271959763770455,0.5526812247477887,4.775155074206688,4.947659483989335,-2.045820768263431,-6.931596965398471,-1.3950160622132621,-2.4984588585904732,-9.33454109360087,-2.3977755187736074,-0.514572227349265,1.2731695509132663,-6.317124641643532,-1.6451925642163827,-4.111097507738923,-5.899084734686983,-4.7469598470621035,-10.223180049863684,5.774233458984541,-6.146063198887919,-5.059241941997338,1.5222792686189688,-1.0703549458790877,-4.455448598977215,-3.357566237058957,0.2269901844279676,-3.50414560713758,-12.05642187906135,26.04383999936566,-9.219501764390568,-4.6127390789500735,-1.1288636809691823,-7.714579421760987,-5.006286640810957,-4.814504712309055,-0.864987689144451,-6.5788209963917845,4.102852456222908,-13.130632836860753,-8.236797160523453,-7.277216419802553,-13.762734498292405,11.770522926334786,-9.702303025007286,-14.992201629505841,-3.630027240872678,4.9653727551649895,-14.614412148994193,-16.140139754839357,-1.7521480091951198,7.6502774701310825,-5.882160381637667,-12.307209051826032,-27.534625766718808],[0.9551849189354247,-0.9529166414684842,-3.659027267988515,0.5342036093290286,-4.774080192134039,-5.944152547426107,0.19106845610901926,4.838953011185432,-13.76179964907135,5.681103956631083,-1.4361317735611383,4.333224403446589,4.932588938102742,1.2825336995271803,0.0622122532257012,3.146482455243192,-1.3299306585398443,-1.8111800225177461,-10.155579524182034,13.325663392006309,-3.6652379426573822,3.6981134146214867,7.84656456556486,4.5876472689151875,-1.829672596594138,0.8131634695025273,2.1531744881673767,0.9772511481955957,0.7915794986009801,-3.7371995801751305,-7.887577143900288,-2.083886100519762,4.667268824630338,-7.544081493673225,3.792196345455211,5.25508170799396,2.6251574111606497,-2.2463801670943746,1.1128969975609933,-1.972252984763241,2.0335094207425235,0.35858146496091536,-1.1255896294847614,-0.5984586067321002,0.8204955593673527,-8.020904065269121,2.5787490902599246,2.6379831288324858,0.2603794715641921,-2.853578149180115,2.374940283154631,1.443483423053716,0.5214339356514759,0.5737787632519151,1.826297134374937,1.160475267606752,-40.05679900893789],[-0.3214573157093894,1.69779523265348,0.6279960791440623,0.03309926382993704,0.18102703612392343,0.5107656994565445,1.2576324624309414,1.050006885065263,0.38267782185304483,-0.47510870184188747,0.03694011531760535,0.45199114171556803,0.5554346933447736,0.3997424140189694,0.6498042144520149,0.6328163763693357,-0.18611378851621932,-0.43596029498138456,-0.2758196631227281,0.37724519753612384,0.44291329055935685,0.19686516211484922,0.1376790442651877,-0.2617073791894135,-0.19068904653891192,0.4728079504785937,0.6857015097652637,-0.26367528776306276,-0.9809053523685638,-1.1884260325702034,0.9721069456220496,1.1050446927317288,3.24648446302281,-0.10033939076822784,-4.740774814729283,-4.007933624560293,-6.260386311290517,1.3412959045237054,0.8440063695333836,0.18184718364343613,-0.051384327057166765,-0.1878958667413115,0.09752981895245987,0.4494890721201468,-1.99295688363144,-3.0621948504614926,1.8171858575820832,-0.0163682799415906,0.8165529163305674,-5.691038011331126,0.21567591207631978,0.09532136029420514,-0.6498766518661847,-0.7823576329709355,-5.224825975124939,-0.9160417861045328,-7.3359686599542835],[-0.1294141870155434,-1.0474236763982472,-1.949365606543764,-6.659479054688475,0.640286094281736,-0.8819295507981965,-0.5267069243020703,-1.1481254663303488,0.9481294488928915,-0.8923005245527754,-3.732508493675886,-2.3333422699192274,-1.0219785421417933,0.007456283564237975,0.11976805446957979,0.4030235092342764,-5.26485396068905,-2.056727314984414,-0.4123575788253982,-0.6499832713616481,-1.3337941413306298,0.454503170634889,1.430738657796874,0.5885717029773941,-0.17419503066638362,-6.93861336495718,-6.546961391208842,-6.483180565708269,0.6481892104169353,-0.3250291392740764,-0.14915061154331044,-0.04375563359452531,-3.599491585876116,-0.25783230147327124,-0.6567534507560224,-0.03903410980866953,-0.3457038053913251,-0.000417436247951338,-0.03691911696978322,0.5357490996208331,0.0051275309267969195,-0.223929949358218,0.049861207491616884,0.10011008595463167,-0.16793239925227685,-0.5557430232087636,0.006671702425137402,-0.1424820704768655,-0.32258761674597736,-0.1922166181688857,0.07913815124985517,-0.07454376023187116,0.06182305001341323,-0.04530975696190728,0.07640281168655712,-0.20912567671568405,-3.5996163745894134],[-0.04196315614760804,2.8740618100251485,0.27622973639684495,-0.36351884085112424,1.0005101173703717,0.2810136126926478,-1.8781740227367678,0.0006720430411846786,0.3123491085986958,0.38223305342659114,0.23162822604421635,1.1207297890469323,-0.5098461705859044,0.038579794198797215,-0.37594998990274886,0.39214249207181817,0.5951381462127474,0.8465760762348594,-0.146432046516829,0.1542032755859481,0.2519606627328172,0.34836133810720205,0.253167486523584,0.24437838136005546,0.6989483661250759,0.13624925216924186,-0.24414981651728154,-0.00011229773063055794,0.7368885804183416,-3.138753003090625,1.022249642737411,-4.800064953109677,-5.9508632629482054,-0.29698297971715143,-5.159298701241698,1.7983445861425955,0.1434161923074955,-0.13698255125480854,1.690806792875963,0.6520919087811264,-5.277801965577823,0.4757993944533721,-1.0553190098586036,-0.05558977482955324,-1.9288438271612458,-5.683872806829767,1.069893508525638,0.5885716259950908,-0.030477358221366904,1.5619240329728763,-0.19813682326576856,-6.280286944695267,-2.1257829689235583,0.4847925508266639,-0.3234065638739082,-0.870985044665385,-7.883581772240161],[0.12340731966029539,-0.4945556825064513,-3.011070965850625,0.21195492698052307,-0.8496617946641969,-0.36546276220669127,0.8651795309928799,-2.5818152149470497,-0.9473142500699614,-0.29673664956185625,1.1319656350976453,2.018439593140538,-5.143521393460192,-5.770765985352423,1.0607969866394948,-2.206895357694216,0.5202246604338101,1.081753507762576,1.8349187502623803,-0.08162929819074582,-4.319569213686431,1.4460004541391245,1.439622830521413,1.5353373017779612,-0.7650351548591318,0.9141459168344571,-6.187374037038072,0.34104219973394057,0.7803556371334861,1.3385100656642719,-0.00551039825469782,-0.4906777581575176,1.1215743500928086,-0.40727496969116805,-0.40902733873769015,-0.19367965335016854,-0.35247558340880397,-0.16810004017500826,0.3888872669578612,-2.013755404074412,-0.6136863355474454,-0.3726409809433538,0.006797609930788523,-0.4907450310702663,-0.3045874027837517,0.4946799326161732,-1.6341866567061103,-0.5976963513887431,-0.10088292863588254,-0.10444089288415667,-0.38647722214363345,-0.15096748858810208,-0.5066942001484799,-0.9321206808515298,-0.12024872182962708,-0.15287130857499476,-7.27449376907595],[-0.4957222550455128,-1.0115830185527386,-4.557031039355303,-0.4323195877769675,0.2882635150034465,-3.5009426016400185,0.4257471198956713,-0.30711185760095133,3.281390235015184,1.4761730087230258,-2.741257639889815,-3.575265883974737,-1.1016512636374836,0.4879494078405042,-0.1541418027419238,0.9740575394363431,1.3987802482151233,0.6808386616555197,-0.0989159974982221,1.1848107804415358,1.8208095897113998,-1.7905054430483944,1.3077654141729995,-0.7100188469679733,1.4613523593191222,0.620536858678705,-7.397411892312997,-0.21288469161259485,0.6797190094298322,0.08447342629820237,-0.0068239087355000455,-0.1004345284323546,-1.153918264837516,-0.1109798342311995,-0.27163060222257435,-0.05536481716856908,-0.024254129098710907,-0.011461554522078303,0.1990421346284729,0.051833370092856115,-0.12487595817462778,0.1892486943699493,0.1070340018678925,-0.2443955112331537,-0.18248967370993363,0.2834154346793448,-0.06376085230032764,-0.05072751779886948,-0.14153895313642148,-0.24706144219124948,0.349753352353208,0.11784677658571552,-0.5346249398735422,0.12321632729157408,0.1441491933908612,0.034661987259230954,-9.831382548918208],[-0.651229791795574,-2.0481880492872313,-0.22243517495910628,1.2738267815395043,-2.895648701481826,-1.3142551978099621,-0.055856145122200565,0.026345768534953545,-0.16417853276521022,-0.45860541610461514,-0.25486872825002327,-3.7915291133161246,0.9342904844717594,0.3978373398960054,-6.03604521885254,0.6329705742032012,-0.6878421978540635,0.3142509895529297,-0.052673719861225994,1.1377360955453604,0.9253925244701129,-4.156819797181414,-4.505772150277363,0.66746221996566,0.19945788195016342,1.0875251600805826,1.6054065082867262,-0.23514596165177448,-0.6000135876890753,0.7356729905612767,-0.1489905528252851,0.0008141697991342378,0.22747132179683874,-0.00923942569051532,0.10145765877997413,-0.10372409784706002,-0.030346205652305152,0.12436731001020801,-0.18545999553619325,-0.5445228039875661,-0.24295148001289013,-0.054977401517492766,-0.0630968661488541,-0.03725106225955794,0.005923736626215101,0.10161361082353296,-0.13600632313071234,-0.11426229569250639,-0.27309851265334323,0.24367407174877712,0.3903187908093358,0.1762961675387482,0.060862205738908944,-0.034173821924295404,0.022809728013319996,-0.011266358198725587,-6.849717362977324],[-0.4942515540625655,1.7149028651096876,-5.211987739928273,-6.261864663034415,-3.3099242723046545,-0.09285791444383,1.6673105221290365,0.5559066939085969,-5.24597063048609,-5.421773727055064,-1.047834435279393,0.8757245931912531,-1.6062916521438615,-6.617018924538579,6.473215083131825,1.1201672590511986,0.5691589257033479,-5.355171344853257,-1.2748625829055393,-0.5884568056397563,-2.923556886654919,-4.906117761296639,-3.405565792755073,-0.04533880349075354,4.5627284424018395,0.3700732404554832,-0.9916407405534071,-1.7174626621635785,-0.9202011566221141,1.2024449440878868,-0.39143486859852555,-0.066182658244838,-0.8699652356994407,0.05577128244414248,-0.10911378429657555,-0.12766946504138385,-0.3321587741031567,-0.15138918513261332,0.06242390792848461,-0.2841121824511824,-0.8446854087445976,-0.42939992620677564,0.14369801164874077,-0.4593730641218426,-0.0286225013678716,0.12042698834583579,-1.2244572581822544,-0.17263729706450343,-0.24399825057811594,-0.08216202716628195,-0.4453188346528441,-0.2625093726198405,-0.006330602827864027,-0.12657894450313326,-0.42509742401057393,-0.5709893074498334,-11.071264578966177],[-0.06737976712360849,-0.8390046423485741,7.90502396798748,-12.502597355496283,-6.925840327419158,-4.367695639553578,-4.149701105578773,0.6819701397041054,-6.022427088633045,-10.802480668252937,9.209805884942703,8.164440150989583,-2.952172858673797,0.5349956923350088,-2.5490958212226325,-1.2793026460038996,-7.863690582004574,-6.053186835798675,-15.624780569729358,-7.24867891835302,-14.3248134697003,6.432027072135679,-8.098497170588749,-0.7558389719267666,-2.2508085294461644,1.7356760606324764,-6.178933577911619,-13.313103895296972,0.26981779779838155,-0.30972991970089253,-9.1434966826239,4.991156384587926,19.209463558572942,-11.933684566766418,3.122765602328497,10.50399851771062,-3.1641775425619865,-5.329831356639869,-1.0100137538711405,2.692883495067707,2.94831496569521,4.383996076733942,-15.681079735952279,0.8145817658766206,6.704422967443863,5.956741879401622,4.302620794325565,5.2311282314144885,-0.07093001593489263,2.634965579891262,0.22602208151457984,-1.8623216607601323,1.6213829630918284,-3.3602397971123477,0.7479576320799561,-9.165324381951411,-30.368235567915278],[-0.9080844074805,-1.9138225077338304,0.8843103575284998,0.06888041366334403,1.0422689314981914,-0.10389536844963308,0.7178912485547589,-0.3307907434872066,-0.3585599122026239,-0.6722239179083592,0.5534218291387137,-0.13896673815864338,0.4589936061392346,0.14652850665723363,-0.26460510989068076,0.2324796081035648,-0.23034218982311902,0.13572195147096983,0.6460540880598339,0.01824893602713167,0.6897755842531736,0.03584801347469955,-0.32833686571358917,-0.0674891309840104,-0.12558558657452676,0.16107932545237064,-0.14332137587083638,-0.3846523854435862,0.1718171721051407,1.479653022036439,1.1273785856555134,-0.26914691239724664,-2.2561960596517543,-0.24296838507704036,0.49965878435271743,-0.6003902240039621,0.006487741580809259,0.20723896183402912,-0.30316667802130903,0.4084030513238777,0.4216591163489468,-0.8541488335863681,-0.1951643394493879,-1.5314408267352095,0.5541764911822376,-5.6950553920354405,-6.630293613079393,-0.5575730666175719,0.19274914286630568,-0.8609983580026855,-0.33429142541904133,0.6322344162877307,-2.025190760634759,0.3727971786038221,-0.04632500684424215,-0.7261381804069863,-5.285669149023496],[0.8305821069713133,7.918661036173027,-4.652071429021983,-0.4612093823958448,-4.093327688216086,-5.622159593297406,-5.0777151746520754,-2.5668891866408567,1.8021421702912523,-3.2257105281323275,6.444340646390916,-4.093554295474912,2.6388220005911873,-2.1980596456089208,-3.745124176248165,2.490058181012636,0.3115113203773946,1.463661641415322,-1.6858105425222683,-5.0336130229313785,-3.574611958103458,-5.687304534715054,4.610412503094587,3.796146567282173,-7.834159257080351,2.6486743996692725,-5.384231235789906,1.770361375353127,-0.44121986109972444,-0.674060229244184,-5.7068778656745325,0.6058941193042762,-0.07651558560122348,-0.2489829565643089,-0.9564806362107339,-0.28992759078343733,0.4780291681118986,-0.3252396894144622,-0.3631905406580905,-1.5818342727745445,0.2629183148780186,-0.7549063908874895,-0.10007460031570843,0.2321567526914154,-0.19083066944626084,-0.43120934935696686,0.016433848253999267,-0.10300068238558613,0.4424166720962255,0.5306048355853875,0.3860012241118297,-0.2048762836704877,-0.5176906063127357,-0.32112446591418975,-0.5386059354429351,-0.11611642377866886,-15.656934711653413],[0.9609553541786682,-2.5125406373923216,0.6113998538160994,0.8619717454282009,0.25785891210800505,0.6873101728546516,-0.2919874204229253,0.01712192676963903,0.4177048749818359,-0.7206621803402242,0.9321129702744188,-2.1449652006409057,-5.567097996065189,-1.7044435063848886,-2.8778976702554413,0.33079954462935435,0.4751068297029056,0.507331373688543,-5.5537270184124035,-6.567029357241024,0.4886092934850978,-2.4335929128173426,0.19328605193741033,-2.2668920649575086,-4.876597968572552,-4.6087442158240455,0.28560772018690905,-0.09668712588441368,0.3239286303832891,-0.11647082061841874,0.056229828798235286,0.03045879161379844,-0.6625401195691701,-0.07339250462478804,0.2940901283773434,0.2386870346962026,0.014533745281295623,-0.17739958507255343,-0.23794136441850292,-0.26596698224919973,0.14670789237937984,-0.22435631695630975,-0.22327213854526395,-0.07819322863175511,0.22990249817650307,-0.028806960762320574,-0.6357244549497779,-0.3048206387358812,-0.21484517443797294,-0.12721381919495495,0.1357507062806862,0.006707723133241128,-0.18327748512014289,-0.12367462652665981,-0.20807347087419067,-0.08208976924188795,-5.46850048547905],[0.32511252880904795,0.19701071184455413,-4.366994849861456,-9.676892113995372,1.1335593458926498,-4.15079773306578,-3.500565246726525,-4.821979201090589,-7.757246608204258,-7.9118975338959086,4.631697041247749,0.9917716080482185,-7.868874578175081,-11.82617239263245,0.6826461717795664,7.193316055041191,-4.6776986602146,-4.115634626064006,-0.10822035048234802,-10.820020337479185,4.139624332528553,5.027507314664248,1.3744131267492699,-11.444363841011599,-4.6981565680473105,-12.124104417817728,-1.3555059455119804,4.716195010911546,0.10535245231537149,-2.3187856722340645,-7.343129635849315,2.089892917866991,-0.9524683818562549,-1.0821457305255833,-1.4829805077236824,-0.5470037457434554,-0.04589109971834845,-1.4796962273055116,-0.2525076640548471,-2.1304438650535786,0.26293257176116547,-0.7366540758008,0.8043046483599546,-1.2258723645032419,-0.31129279742118054,0.46627382901921754,1.7982036357085704,-0.5070838997866586,-0.03705984893610607,-0.7269568787165347,-1.6601378220012615,0.3587754481592704,-0.36403098362407316,-0.8241367836047969,-2.214758480469429,-0.083596977838714,-16.67583808923923],[0.15971561766019637,-0.19899574200728906,1.178198722388038,-0.2327637356943877,-0.5462113669373777,-0.26351803089694015,0.4749964819414901,0.1870118684317704,0.545170558443688,-0.8626364081969471,-0.4209018960036657,-2.663662734006217,-1.3859641446432536,-1.3842145143728644,0.15369779791966057,-0.009603693709081916,0.30791927515283557,-0.6637970820354752,0.2363919486889644,0.1108110662247561,-0.6391436557090604,0.1256880557817329,-1.1700674263402207,-0.031893286546227584,-3.539822776234908,0.6172098187042574,-0.04585538323857922,1.667827687805996,0.025859632255110565,-2.198602027618408,0.7030019658486265,0.27932122488477296,-0.31444194227413863,-1.6271244278652972,0.07218824969173127,-1.328308392400699,0.6087477840405181,-0.18852161370919832,-0.23103843962158047,-0.6854573324516964,0.04881981831524405,0.03572845857919931,-0.6997610049917657,-0.44314616403410056,0.06145825808692011,-0.9919851011217762,-2.7908278219462606,-0.1761041455833709,-5.761888021534156,0.409117557171226,0.7725370638356666,-5.241423827769748,0.5345829103189822,0.6718390244094123,1.3128687017185092,-0.12166709709034336,-6.648624177503209],[0.979881568863332,-0.1920914575267049,-5.045662582493573,-4.8116862591132,-1.4226895029475366,-3.428584818499467,-8.452672317796328,-5.7396578615626614,0.42497449415160155,-5.931480170572958,-12.737338222524272,-0.7606153246123395,3.357582093299056,-17.073131155595927,10.952281791660699,2.582516054864463,17.10373529362786,-5.914087755871696,3.418248178770029,-0.12874182849704752,9.306297958264185,0.7025735408934944,-6.6954491725174865,4.430635893870817,-1.932144890176296,4.1960640746534095,-4.764044219601799,-20.360057688975274,-0.482453752878908,1.8645166950452265,-2.259567877756245,0.6758433313940039,-1.637432108778375,2.4794463483856686,0.03679009194401387,1.4808296723036036,0.6298018041140897,-1.2300075075762196,-0.5995804903659774,0.11735608518195632,0.4895552210688178,-0.2245412170194918,-0.23262039489811803,0.4381111234519371,-0.6660161302224148,-4.016124728996271,0.6685955293012772,1.9875560382251043,1.5304267342198579,-2.5120737189654396,1.1373122699429443,-0.3093195643607595,1.9110886120442372,0.8714204034698618,1.5940580027227795,0.12418982112083188,-37.66550347207186],[-0.2899387800630443,3.4888454656909516,-0.7207084998107035,-1.686575347546274,-2.587361293079601,0.3354565175503399,-0.07399217519134516,-1.2337670307439654,0.2835174929109579,0.45444276891435126,0.24274605600342822,-3.8413309559587328,1.391271786510461,0.6880279493923448,0.6513701902859506,0.11789210192222059,-0.4258388310279545,-3.681708770617236,-0.828237889966963,-0.7415351058516187,-2.515858879025262,-4.863609701199016,-0.6758603624212625,0.7271624985187042,-1.2474779841926598,-2.32665191082042,-1.0984690303162714,-0.4483012713901036,0.5535508515712528,3.8088802726470306,2.6712774207462724,-1.1596195416158634,-2.8912268431093597,-0.6741676532504405,1.5222578339429949,1.15069238651343,0.816212623525462,-5.829529777407747,0.6843627227004908,0.3363013824485076,1.238357942286776,1.0596903599456338,0.6527996248533912,0.8923449477712785,-0.25964095680738786,-5.7625439112813295,-0.8266594270420214,-7.410524326379383,2.2817142359695946,0.2988411990643108,-0.8601646560403103,-6.077585908944575,0.6809523744377401,-4.937982641176458,0.3597956201888188,1.2868108352479888,-7.92965647777007],[0.8299708292054311,-1.4895427162143111,0.8245491892308111,4.159523548398192,4.251483554153538,2.874978833256828,-1.2533339398613959,-12.828941056007787,-14.565456429686181,-6.444623672425533,0.5223533111976364,10.365925034767576,-2.9554157203204663,-1.1327668349841769,-0.9293731344736447,-3.8271244730019287,-8.124986228921568,-4.010714310484356,-0.03888292324134229,-5.98951916061147,5.714978685243567,-3.3077702095567614,-3.697110737929398,-2.9027672742930815,-3.320172939839671,-9.86635425679905,8.71478277539287,-6.436415166208112,0.09628618983605652,9.115204215558748,2.3177092412082816,1.1980906287644437,3.535766258009771,-2.8233578743187304,1.998254354870268,-6.121051000917387,-1.2917270237605176,-2.163458696364862,0.21704986702345086,6.575042749832328,0.2781172500461758,0.09905166237076726,-0.8354213913541132,1.2409236112766804,-4.33087205100826,0.7852384485566023,1.7817928193311372,1.274517708619477,3.5862484799145697,-4.406207823046236,-0.17069893139535114,0.38768234616954406,-1.9914017667893813,-2.682937784959089,1.3577478750103342,-0.028927793742326437,-17.224653283226733],[0.6019096271804572,-2.0278358883487813,1.1627472562289218,-1.7528287769920967,-5.436762718654447,2.5864563414770485,0.5506976588985841,-6.097726320468474,-7.20590893493774,-2.682408000803398,-1.8234484712245038,2.427653863796512,-5.851237980176962,1.1225678593455353,0.04591106985089604,-6.3412315243511905,-3.2020176876141746,-0.5389346105433505,-7.0506008620516445,-3.154498829213479,3.257568278711735,-2.2885860001236176,-4.645001727784891,7.4855320886040335,-0.617789450127463,-6.892699192457155,-6.609579945720512,0.8418746547472973,0.11404173166714715,-2.282761188381732,-1.1494498035487573,-0.05781416734273614,-4.572318229551081,0.24459886450286608,1.104945705637312,-0.010946427802095144,0.33479388494071466,-0.6327712307029812,0.3857101200605764,1.3596528667592112,0.6215761008992888,-0.18439981560811244,-0.12710917687291814,-0.04045070117369328,0.3408042199058934,-0.32733062688182313,-0.19737422196077958,-0.8849738072594759,-0.876866936504472,0.09202466804685996,-0.8814655063374028,-0.32995886549614806,-0.20367389433617755,0.40652740207190774,0.06715485535949549,-0.1959174373117556,-11.36456149274551],[-0.3246518287422583,1.144361532359414,12.636467837897555,-6.944968417619261,0.33344966315270286,0.5297398381827686,6.53696291036088,-12.775636076167341,5.878289943291265,6.716526847875165,-7.047940224202311,-1.3411553740946278,0.5917881532977104,-1.6489013623220816,6.273340804947707,-1.3419261192221943,4.960972649760034,0.7343092094837579,0.03512063499866919,4.8505755140228946,2.606886403496156,0.3805445314762533,-14.045180704104983,-5.849173020893259,-1.535233701779339,-5.5576171164393235,4.910306662430353,-3.24065304573441,0.5110036961801305,8.877957940054666,1.8934947602732537,5.010445222578488,-3.3037253924288565,7.680328739990006,-8.237416943314093,1.0152152236304517,-1.3366614500671663,3.3474334515233712,-0.3321321932025401,-1.4098991117310806,-9.081031421363608,-2.3466204881584742,-5.5572788507371245,3.371846465992688,2.1700207219210763,4.402788700529107,5.744859904481317,-2.8328086735448528,1.749936685959207,-10.22977408602375,-3.4424386451608013,-7.976455570718563,0.22998571706987647,-5.490892923923147,5.835337741199114,-8.549981653266027,-35.837973729500476],[0.4661079608598997,0.4334200414307409,-4.253182686545686,-3.1305961949588625,-5.075964416106746,-5.017293045636748,-3.5816213948027693,-7.4699400951008785,-9.68328311810406,-6.949721687347609,-1.3727129304403047,-1.364238825785963,-0.5983335110296448,2.958537892228173,7.956790904361721,-5.499656395149552,-8.041254114472618,-4.76341200926916,-8.499506479542303,7.064926289941462,-4.945317970978107,-8.1881730150776,-2.4232937785277007,-7.57295712067156,-7.7466231061252175,-6.46428486716313,-2.1281801664305635,6.903681424088166,0.04313444749706097,-1.4686938303676498,-1.1383070025167963,0.2644190908380437,1.0182774145996267,-0.13414271609469558,0.7964759573146267,-0.3767076937001101,-0.6906916320418917,-0.0421306374444169,-0.0524702670695153,-0.6881138976445397,-0.10039386318541131,0.05549784863852871,0.1251639808870692,0.6259825551801705,-0.29786232795553386,-0.17840474187343833,-0.11341143737377445,-0.14869870397625906,0.7222694664731566,-0.4574316404131317,-0.4565185085444714,-0.41713907069880174,-0.7105005478337404,-0.3157007820658675,-0.28592510840514895,-0.06662180335022368,-20.902402030120832],[-0.8604224758451782,-0.5853374566967732,-9.146837933913034,-19.21798111471554,20.154994335878513,-2.4682694131173593,-4.337522351346916,14.256980593790237,-8.374574968735374,-18.478724248407122,-10.453125713499936,-5.459633043845763,-8.172352287627103,-5.779518054001267,-6.450736520954695,-10.529253452283065,1.9992273831038256,0.1260034160188205,-6.6119297652327775,-7.213881869483285,-7.306575430005477,-5.78028284372943,-3.7774282148217377,2.677373390367026,-3.23234568117459,13.618082206156103,-8.414084310984832,-8.744398199639477,-0.9482674126614303,-1.958810632256768,-7.509520449264419,-14.620456806267812,1.103599472200527,-6.304780291006157,6.991566724211306,-5.878157660639085,0.5147753247696959,0.2613127396328671,-0.37255191864726156,10.15773999785264,2.95485891906212,2.279573181407729,-0.9419852907371096,5.6500163144703714,1.2850332441740941,-1.2388141034841376,-5.03711891059281,-2.3523395227606763,1.2000385849861948,0.08238260179679494,-1.7294810914097032,-0.5177223599700294,-2.3764568580195617,5.088594614171956,0.7892506183186192,6.614685422877167,-32.663151332705],[-0.2933402231565071,-0.4277263333595266,-0.06468478958802282,0.7773273321987817,0.0024166344626563863,0.9150501853910462,-0.47910967093532075,-0.5634530569748323,-0.6428577970269131,-0.29951361038714064,-0.03126913605249926,0.08533878723611954,0.7642720746658058,0.24048624920706918,0.8487341682478733,0.6536484256746151,0.924092181639212,-0.20695601127788066,-0.5110872669388573,0.9610374100817094,-0.20392434464315223,-0.8684855853039043,0.39433594007685313,-0.44825484527109316,0.7477427374487646,-0.29632040026528905,-0.5339443772899517,0.20697407554523117,-0.12427060466237339,0.15347172610467807,-0.7168680319296119,0.4234127428922443,0.0991189383627249,0.7294040194304481,-0.5693319698662775,-0.304712276223556,0.6142837780141799,-0.7471432654348462,0.89741603629565,0.11700801606226086,-0.8010017046546629,0.15186110526880858,0.3645724238150583,0.4639809571885849,-0.11963353150488287,-0.4301159380039311,0.38073701264033843,0.688817547069067,0.5186348224020385,-0.7169198077054588,-0.39278423049523137,-0.34168578087703827,-0.2634814755408166,0.6770290161144856,0.5390737655240059,0.24516460067013246,0.057809689354370475]],"WeightOutput":[[0.025967339580238682,-0.23541679489560086,0.061730600861305746,-0.0455495450857699,-0.019815327521813,-0.0661885340423491,-0.017393285449621692,-0.05804127901800518,0.23783625475402034,-0.04002753878606486,-0.036950539137757574,-0.08274052434408519,0.003980253273617168,0.05110669141301084,0.00023522788925635753,-0.015236057693066404,-0.02145129462095903,-0.04766862707430737,-0.07535040296742025,-0.056300110310779646,-0.027250186682538535,0.011966035045654522,-0.05746778290519862,0.009791607520093993,-0.05104177532706696,0.038035702059037,-0.0774514318867317,0.20987194490663322,0.017416061384956237,-0.00722317689994497,-0.019303704760350936,0.20724177141797198,0.004009982463906756,0.02187726922153154,0.2764459733720566,0.019135697112144297,0.00242698485096924],[0.15236974876280543,-0.7958826858472688,0.24422935565284842,-0.26688693962854376,0.8310789808425276,-0.2555299678433296,0.23670571222392564,-0.47593141552563334,0.025410738305706965,-0.2912729933339692,-0.24647639900985666,-0.37707426653768406,-0.09276951526829254,0.006404785840649133,-0.02195793167946703,-0.042821580576105384,-0.23350057334092125,-0.2481345106458309,-0.21126263715792548,-0.23035730410129837,-0.31001228031847955,-0.27605632041598177,-0.06443539107005085,-0.057863567344440876,-0.22444826261028558,0.3745239066294545,-0.36274939022557773,0.572946483086616,-0.14167028375559487,0.12935806682311282,-0.16432412143707378,0.16857920262934892,0.23807876102108594,0.1289464278610265,0.4721631200972454,0.09539150695005637,0.11083294946481285],[0.2989045399165453,-0.6302631455388321,0.4210031777110266,-0.4876692424225882,-0.12101339469547119,-0.79692535862055,0.5142110453654376,-0.5737062775892454,0.538106564141016,-0.35210658386323357,-0.6486236807454736,-0.5502275547680291,-0.18326580736837847,0.638340169852238,0.9287386393897403,0.3667905196914427,-0.35289640980883186,-0.4133152841337965,-0.3306283282138228,-0.30716598957704894,-0.3352446093679853,-0.5208350458076973,-0.4796334615833955,0.9921415650849366,-0.6636264356270648,0.44364609099609437,-0.6269566648181866,0.043323477424337904,-0.5953744231071476,0.695564545541155,-0.2981818942265868,0.405282503780902,0.5243096408040502,0.7740014613717004,-0.06493183822128025,0.7169060724445939,0.024671095043560513],[-0.47724162825959016,1.6615626262817185,-0.7269631342251751,0.8001057271368933,-0.6902502586252417,1.1186438605062203,-0.7335234721397362,1.1076789721328875,-0.8013535572007445,0.6834071159832689,0.9320506188930889,1.0100423456498122,0.2720550693630522,-0.6958516471059016,-0.9070159355995273,-0.3087328814222712,0.6078482777707154,0.7091184218539327,0.617241368339169,0.5938234039891241,0.6725070763690038,0.7849253311780177,0.601536635558644,-0.944069605260587,0.9391164735644267,-0.8562056996845857,1.0671574869305005,-0.8261419054175887,0.7196286454777727,-0.8176994354643226,0.48180972042401093,-0.78110347782823,-0.7663983842890417,-0.9248251584542424,-0.6836772552480253,-0.8314332765067957,0.8620689706406574]],"ErrOutput":[-0.00205513039052468,0.12991044748905567,-0.005731844140297076,-0.12212347295823356],"ErrHidden":[0.07631018741823016,-0.3021758056591526,0.11796721922040702,-0.12947978156362844,0.19299595409419845,-0.16509782734031467,0.11741934682665792,-0.19368558654571996,0.09759207238547081,-0.11917527673369299,-0.1420416013179137,-0.16893142360678864,-0.044233768030766014,0.08204797112614431,0.10259150280142464,0.030069487005522103,-0.10249977286255718,-0.11636824566531273,-0.10077490262778516,-0.10056586122911379,-0.12038586620417471,-0.1287119594264235,-0.07896375155810456,0.10206905313533823,-0.13993016510785122,0.15060212198905978,-0.17349664614051527,0.1746437259349508,-0.10291115410892823,0.11269323624800454,-0.07843883910418183,0.11454234409597794,0.12151064900965584,0.12521293199354555,0.14463600976577207,0.10978135239142639,0],"LastChangeHidden":[[0,0,-1.1904603184448594e-167,5.885789662426801e-14,0,9.214454277592818e-30,2.747716883921123e-11,2.8471511446700973e-24,1.0700892279220103e-18,1.2609982624464326e-9,1.470211939435704e-12,0,3.858252473245897e-12,1.1131747320499213e-18,3.274718850366509e-11,5.885789327853547e-14,2.747716879612915e-11,-4.1314812294759806e-16,2.8502215918245344e-24,1.2846167648031066e-9,1.2609982613731403e-9,2.5083167127347656e-75,2.5520610540387818e-19,1.411768516369067e-12,1.2585517760113498e-9,1.2571395957517715e-9,1.4117683042393669e-12,1.2899460551772141e-9,0,7.731914198629023e-175,4.9902335332280986e-24,-3.2092358046143874e-21,1.0394500115447855e-245,6.248645555590088e-24,5.596482355649196e-29,5.885904953310115e-14,3.857840438286439e-12,3.858253583342899e-12,1.2846760370039635e-9,3.2648996381650374e-152,1.2571395956688097e-9,2.7477169134299858e-11,1.4117673633152166e-12,3.8582525131312615e-12,1.4117671082568495e-12,5.885789649401995e-14,6.248645306598912e-24,3.858252728452002e-12,3.133542242563186e-11,2.5520610540365328e-19,2.8888935990408695e-11,1.2571984536482649e-9,5.844474850132035e-14,6.2517625188793494e-24,1.2571400088169333e-9,1.411767151345779e-12,1.2899456434373464e-9],[0,0,4.3463545734174474e-162,-0.0003319427422545841,0,-4.09812954961613e-21,-6.966479498920427e-10,-3.0051799282234037e-15,5.102613548819058e-9,-0.0000174984937787496,-0.0003320673178364331,0,-4.6497599359018444e-7,-1.960207717004826e-14,-5.903024722278902e-7,-0.00033193763962115794,4.4059821951797e-9,5.4248287181858165e-11,-3.0051803180052587e-15,-0.000017029057535077677,-0.000017498493759148437,-7.098824350558727e-74,-1.783335924947916e-18,-1.1952721986979048e-7,-0.00001715814759624543,-0.000017033463517271072,-1.2462985001312444e-7,-0.00034956145985915414,0,-1.0504521124223488e-169,-2.1101726388066783e-16,5.1026331505780015e-9,-1.472371381205038e-238,-5.978664800770519e-19,-1.1319417679650222e-19,-0.00033194274227391096,-4.6492176469346275e-7,-4.5987338010607974e-7,-0.00034897695668720957,-4.291802812256261e-148,-0.000017028360884119856,-6.96647952592197e-10,-1.1952719726221886e-7,-4.649759965962812e-7,-1.1952719774746177e-7,-0.00033194274225430923,-5.985911345102137e-19,-4.6497599359208105e-7,-4.656726611421537e-7,-1.7833357732170638e-18,-1.253264813663989e-7,-0.00034897620577179124,-0.00033194268800629674,-7.080770314490187e-19,-0.000017028415132407688,-1.2462983390418732e-7,-0.00034956140563326534],[0,0,-1.3026811509242462e-163,2.8631223302996773e-11,0,2.3240830674595343e-30,3.1848461221395782e-18,9.472003702833756e-29,2.892367008625414e-18,6.08961201839825e-10,2.1962503492295266e-9,0,6.04550691961687e-10,2.8923694525768212e-18,2.7721698214550342e-9,2.8631223298366794e-11,3.1848437450441863e-18,-3.727386739350092e-19,4.2502028060071434e-27,4.410509797895017e-12,6.08961198947477e-10,1.607374660949531e-74,3.8509700136347703e-29,2.167619129196219e-9,2.172029633294291e-9,4.410506613051272e-12,2.1676191291962e-9,2.8052115543859976e-9,0,6.780577448570896e-184,2.6468281119510693e-18,-2.4436132497213037e-24,4.77013273129245e-251,1.4499222488693445e-25,4.411694207857814e-23,2.863122619073861e-11,6.045506918344896e-10,6.045506922118093e-10,3.304173371454657e-11,9.168031592863628e-153,4.410506613048824e-12,3.1848462671725635e-18,2.1676191263038283e-9,6.045506919616872e-10,2.1676191289552825e-9,2.8631223298413497e-11,-2.109616910172518e-23,6.045506919617312e-10,6.045506980389026e-10,-2.124112370076708e-23,2.1676191294886982e-9,3.304173255824869e-11,2.8631222930235223e-11,2.302526296948808e-23,4.410506985787569e-12,2.167619128955285e-9,2.8052115542588e-9],[0,0,7.139332095844083e-164,-0.00004094886270659787,0,-1.4584665010022271e-22,-1.6885882712076252e-9,-2.17632578322594e-14,5.568941422570079e-10,-0.000016021517819701842,-0.00004100390758031239,0,-7.51948325444812e-8,-1.9998910666038645e-14,-1.4072837211797302e-7,-0.000040948305798483644,-1.1316958935366058e-9,8.800077532856594e-9,-2.1763268191442243e-14,-0.000015938654592379025,-0.0000160215178057572,-2.2057506732756633e-74,-8.056288396806095e-16,-6.32880797013537e-8,-0.000016010167912406463,-0.00001593752289567986,-6.384497127362432e-8,-0.000057035357133555434,0,-1.1933396409589077e-168,-7.903896529171474e-15,5.569080868992698e-10,-5.1457842775751966e-242,-8.935506569910269e-24,-1.462400405761473e-22,-0.00004094886273262396,-6.639476710662982e-8,-7.463793657992775e-8,-0.00005689687428095536,-8.533775527229128e-146,-0.000015936965975484414,-1.6885951311063364e-9,-6.328803188490657e-8,-7.519486036200746e-8,-6.328803901051472e-8,-0.000040948862706570544,-1.1284715533308214e-23,-7.51948333501102e-8,-7.68834408145995e-8,-8.056302957683672e-16,-6.553355525491072e-8,-0.000056886385610154536,-0.00004094006262906502,-8.914772553862898e-21,-0.00001594576605301752,-6.38449749151792e-8,-0.000057026557096740734],[0,0,-4.814868821724595e-171,9.045901463046682e-12,0,6.023998788762647e-29,1.2715905441081658e-19,3.377553502067798e-23,-1.4014865276542792e-19,6.9639676960249534e-15,9.04590202028953e-12,0,6.961109774147925e-15,-4.0012491515528323e-23,6.961813600937326e-15,9.045901313779875e-12,-1.2916087493688953e-20,-1.1085859927726456e-21,3.377553501587578e-23,2.8437544983288888e-18,6.9639677361034624e-15,5.976879560112144e-80,-1.8306121303298755e-22,4.272116299127047e-19,3.434629690463343e-18,2.8568533695446282e-18,5.674694898779868e-19,9.052865985342769e-12,0,2.650940007648139e-174,1.3548875599880213e-31,-1.4010864024218854e-19,1.0510613376444798e-244,-2.1150513322099804e-25,3.204865188397258e-26,9.045901453848438e-12,6.961108625205964e-15,6.96097878362951e-15,9.04590443878611e-12,2.2575766107871682e-156,2.716744729238992e-18,1.2697605921540986e-19,4.272178668970149e-19,6.961109807989478e-15,4.3655940584703795e-19,9.045901453888615e-12,6.598519657930993e-26,6.96110959111876e-15,6.961236893189845e-15,-1.830612137776868e-22,6.947021207792226e-19,9.045904310741885e-12,9.045901461938342e-12,9.797361346217328e-26,2.7178530381263908e-18,5.76701822041575e-19,9.052865984044884e-12],[0,0,9.48153151489243e-162,-0.000033041149472448705,0,-4.8456994397912227e-23,-6.774708853730756e-8,-7.408455871262436e-13,6.923887815278703e-11,-0.0000022393834903496545,-0.000033707461169873944,0,-3.2201364408136116e-7,-1.971253626108037e-14,-0.0000010607146416529418,-0.000033041080213839515,-6.767857079220652e-8,4.642211496487065e-9,-7.408710553542111e-13,-0.0000019804061907675854,-0.000002239383470664,-2.8581042027001436e-76,-4.889227128095218e-15,-6.708854158728645e-7,-0.0000025883237355668417,-0.0000019127276150861515,-6.709539287014246e-7,-0.0000360191646821795,0,-2.12817014327579e-168,-1.5404473721277502e-16,6.925856565413263e-11,-1.2673627506516258e-240,-1.846650778804431e-18,-1.93736498705748e-22,-0.00003304114949214089,-3.17371452116052e-7,-3.219444051177357e-7,-0.000035026266411996454,-1.8593811334692747e-146,-0.0000019126583564449596,-6.774709345341757e-8,-6.70884655264238e-7,-3.2201438495382986e-7,-6.708846505999063e-7,-0.00003304114947240702,-1.846650435938012e-18,-3.220136489705885e-7,-3.8976075233120496e-7,-4.889228415719273e-15,-7.387017383485947e-7,-0.00003495387708764537,-0.00003303650726095222,-2.7313721246245998e-17,-0.0000019173005679669155,-6.709546500361835e-7,-0.000036014523235975886],[0,0,-1.830007841052651e-171,4.452779949236591e-11,0,1.5794989634584097e-30,1.9751245562343488e-17,3.1825820732625813e-25,-1.0208298245267517e-21,1.8628403281917695e-15,4.4570148945032824e-11,0,1.8575948468367386e-15,2.38490336095703e-22,4.956591890526073e-14,4.452779949058732e-11,1.9749986715398765e-17,-5.33911911773141e-15,3.1826191290466333e-25,-5.31412366430605e-15,1.8628403127940448e-15,1.7264635573414107e-82,7.526368633310135e-25,4.768857127367022e-14,4.769381827881896e-14,-5.333873651774103e-15,4.7688572308826866e-14,4.457737065495883e-11,0,1.4899338042398007e-184,2.9205896069786123e-25,-1.2593201604609715e-21,3.9391188763071495e-246,2.2309259239421415e-22,1.0492490298393588e-23,4.452779949186219e-11,-3.481524255789029e-15,1.857594334499901e-15,4.452782448857417e-11,1.2853463845512992e-146,-5.333874911094268e-15,1.9751469407591875e-17,4.768857103486162e-14,1.8575950702476082e-15,4.7688571766278716e-14,4.4527799492080224e-11,2.2309261153769415e-22,1.8575948580818656e-15,1.8773463308894177e-15,7.526368633625463e-25,4.7708323539309717e-14,4.452246561819531e-11,4.4522460373237686e-11,2.3358510412339243e-22,5.244206792105151e-18,4.768857302607211e-14,4.4572031536080365e-11],[0,0,2.0725800660492115e-161,-1.966860294914072e-8,0,-3.770006655419765e-22,-2.060759016457621e-12,-4.191056731670862e-16,-7.265242093745529e-15,-0.00004912706735076398,-2.2051573200665054e-8,0,-5.486103316801202e-7,-1.0803071093669639e-14,-5.511212393143147e-7,-1.9668598837517402e-8,-2.0576402942469216e-12,1.2587543911707128e-10,-4.56048760353566e-16,-0.00004857833319074327,-0.00004912706733996121,-7.420078965664545e-75,-2.610000892382743e-16,-2.508854283671494e-9,-0.00004858096585515626,-0.00004857833113284197,-2.5088571041514593e-9,-0.000049149246847461905,0,-1.8700972578686164e-172,-9.9204906473675e-16,3.5378268950412345e-15,-2.948847900959822e-240,-3.001666195319103e-19,-1.1173854892016848e-21,-1.966861317811807e-8,-5.484844660147831e-7,-5.48610338527111e-7,-0.00004859812768152411,-2.7743031609679116e-145,-0.000048578331129267196,-2.0610203200392713e-12,-2.508843024549894e-9,-5.486103320995282e-7,-2.508844366636242e-9,-1.966860237564483e-8,-3.001494671739941e-19,-5.486103319411213e-7,-5.486124032422077e-7,-2.6100129236225583e-16,-2.5109074795005756e-9,-0.00004859799973620937,-1.954272751002133e-8,-3.724275644560602e-17,-0.00004857845700474326,-2.5088483235724086e-9,-0.00004914912098247698],[0,0,-9.998860587881236e-170,1.1394063967750786e-15,0,1.512022142759236e-27,1.6271753725332583e-19,2.026877138922253e-24,3.2247041931979705e-18,3.2253265444104437e-18,1.1469999902486826e-15,0,6.294829142038221e-28,3.2253189240192165e-18,7.756323481970693e-18,1.139405782043869e-15,1.6210483330919262e-19,-1.2468195199480526e-23,2.026877138947804e-24,1.6405548834234931e-19,8.875670362347533e-24,1.010540867535385e-88,1.9542481874507714e-21,1.0820266411962072e-17,7.593614819128739e-18,-3.593154294127295e-24,1.0818923612439607e-17,1.1471621145747264e-15,0,2.86886056488076e-172,1.7384587326987938e-25,-6.147308212340435e-22,3.455980588649368e-249,1.2552791197395134e-24,1.5120675763582504e-27,1.1426317144419183e-15,3.2253050273285326e-18,3.2247040203698625e-18,1.1427963949300661e-15,3.782726992603692e-158,-6.183239755523601e-22,1.646730407199085e-19,7.59494546257775e-18,3.2827857537322183e-24,7.592992642391522e-18,1.1394063980284575e-15,1.2552790909822038e-24,1.954250329027182e-21,3.388036461902025e-18,1.9542481874219393e-21,7.75632550782999e-18,1.13940639335387e-15,1.1394063843053713e-15,1.2552791882811505e-24,-6.0585426835670495e-22,7.593609401601954e-18,1.1503893771317693e-15],[0,0,8.472397462640469e-162,-4.599303889416321e-8,0,-1.7429889056464553e-26,-3.688860005210945e-12,-2.0118962197375043e-15,2.0634084500606685e-11,-0.00007749605975545843,-0.0000028542743429180374,0,-1.4880181116953763e-8,-5.51570195128065e-13,-0.0000028231779837075433,-4.597185324423237e-8,1.749478278692299e-11,1.2809706671788528e-11,-2.0118985829117235e-15,-0.00007748114871841623,-0.00007749605920389312,-8.674437963362123e-77,-1.2951566986902015e-16,-0.000002808273481787476,-0.0000802894731364972,-0.00007748116621306951,-0.000002808294665300632,-0.00008035032887793574,0,-2.2563425019878446e-170,-1.8222124897208577e-14,2.118564991639223e-11,-2.582919482129059e-241,-1.2537599558267072e-19,-2.025461523332162e-23,-4.599359046900523e-8,-1.4867904758224465e-8,-1.4859528815122037e-8,-0.0000775271762840078,-1.4075850312755679e-147,-0.00007748114502741003,-3.688994425599458e-12,-0.000002808272928200603,-1.4880183133754702e-8,-0.0000028082729462933544,-4.599303889427415e-8,-1.2537595795813835e-19,-1.4880181246469453e-8,-1.4884421547154102e-8,-1.29515669936637e-16,-0.000002808297804597684,-0.00007752715927018579,-4.598022918749141e-8,-1.2775925764772326e-19,-0.00007748115783711671,-0.000002808294133959954,-0.00008035031660372333],[0,0,3.359321831325251e-160,-0.00004353884724366402,0,-6.806963841487397e-21,-1.0137487138257401e-15,-8.814721220214667e-14,1.1167653485036837e-11,-2.2624646963922926e-9,-0.00004353886020608244,0,-3.021360767216095e-10,-2.6639127653382527e-12,-3.152515745277594e-10,-0.00004353883341209778,1.3742405289459115e-11,1.5206563499165e-13,-8.814721323398118e-14,-1.943770237095845e-9,-2.259800784688417e-9,-5.314537237913566e-80,-5.3488653428317127e-20,-2.0349778388930297e-12,-1.9707791920074416e-9,-1.9575126423318155e-9,-1.577839576948359e-11,-0.00004354110633934158,0,-2.7079756469217772e-170,-1.096132312750537e-14,1.3831566241974248e-11,-4.4700860125951237e-241,-1.053041676143592e-18,-6.807055490258927e-21,-0.000043538849907575736,-3.046369614747552e-10,-2.909574619220545e-10,-0.00004354080756233618,-6.1500824995056804e-145,-1.943681076072008e-9,-1.0148636450820345e-15,7.170821412933074e-13,-3.0222422499525423e-10,7.061198241390221e-13,-0.000043538847243665066,-1.0530214551960725e-18,-3.0213607678190523e-10,-3.0480100323566165e-10,-5.346851454739372e-20,-1.320364500972236e-11,-0.00004354080476726767,-0.00004353884709159838,-1.0540532988446831e-18,-1.9438331417148383e-9,-1.3213593645245182e-11,-0.00004354110892837466],[0,0,2.131899393663277e-166,-0.00042153520286607367,0,-1.4996677490803102e-20,-8.909252980519137e-11,-9.471147312634244e-19,1.2606141241053702e-16,-0.0000012269007649226345,-0.0004215360883862126,0,-2.32700018569363e-8,-3.853511864380206e-21,-2.434439562140346e-8,-0.00042153520286589065,-8.909240471137085e-11,9.978098196104891e-11,-9.528196023458246e-19,-0.0000012036200744888578,-0.0000012269007649226415,-7.916345522922514e-78,-4.019463174720934e-19,-9.853010529598423e-10,-0.0000012046160643003453,-0.0000012035309820837444,-9.853011776703393e-10,-0.0004227631780245777,0,-1.0221170712565826e-172,-3.763278967399932e-22,1.2605417148685816e-16,-1.3998498656970958e-238,8.005938134151243e-23,-2.165638423437079e-19,-0.00042153520286601675,-2.3170220874972943e-8,-2.3270001787655107e-8,-0.00042273892272161264,-1.1095097864262826e-145,-0.0000012035309819576623,-8.909253021823268e-11,-9.853010520070686e-10,-2.3270001857894507e-8,-9.853011083657925e-10,-0.0004215352028660169,2.566497754906374e-24,-2.3270001857554807e-8,-2.3359094386745345e-8,-4.0194389753908655e-19,-1.07439370840762e-9,-0.0004227387338481005,-0.0004215351030850915,-2.0726911664025147e-19,-0.0000012036307629396683,-9.853012354175807e-10,-0.00042276307824359714],[0,0,1.4295916939622724e-170,-1.6062779340356053e-12,0,-2.3101882051076076e-26,-2.3363201141379702e-12,-2.074532941562527e-15,2.3834066558998137e-17,-1.080403919735496e-14,-1.695396918173148e-11,0,-5.742194877500673e-17,-1.419893187079754e-22,-1.7687925237203285e-11,-1.606254017948238e-12,-2.3383708128788236e-12,3.8562411100794804e-15,-2.0745330022510573e-15,-2.345261213245763e-12,-1.0804063422393795e-14,-1.715403425625777e-84,-5.653889849009472e-26,-1.535359829392175e-11,-1.536229429410909e-11,-6.890400363539315e-15,-1.5351547595001495e-11,-1.9304925823964228e-11,0,-1.2611152002888342e-176,-1.6815197337876542e-28,2.3809968014819716e-17,-1.278901220585427e-241,-1.2315086800946413e-22,-3.908545908067915e-26,-1.6062778521834404e-12,3.79881920984229e-15,-3.371824208576457e-17,-3.95334458361192e-12,-2.1382702242366753e-152,-6.866541853768971e-15,-2.336320138505055e-12,-1.5351523736537e-11,-2.131979257365689e-15,-1.5351523842846784e-11,-1.6062778280427403e-12,-1.2649465001064805e-22,-5.742194887063862e-17,-2.336377536228735e-12,-5.653184232561539e-26,-1.7689942217821656e-11,-1.6131682282909519e-12,-1.6024216929288305e-12,-1.871991785526065e-22,-1.0722783032398886e-14,-1.53536222100081e-11,-1.93031441401176e-11],[0,0,-1.5755435231693108e-178,1.495276264276717e-19,0,2.9866909713661616e-33,1.5813588619648253e-33,4.781914393096431e-18,-9.343558289449909e-32,1.144727517975765e-24,1.4952762642863995e-19,0,1.1447285632506856e-24,7.211855906410631e-37,1.1447285648320511e-24,1.4952762642862626e-19,4.78191439309634e-18,-7.648160636466796e-32,4.781914393096431e-18,4.7819143930962655e-18,1.1447285659684483e-24,3.3041342742893957e-94,3.561467499778828e-40,4.781914393096337e-18,2.7177693537980917e-33,-7.37638436902767e-32,-1.0479926771836992e-30,1.4952877115614607e-19,0,9.445899367069015e-188,5.409049813525721e-37,-9.34363041004708e-32,2.122237793192699e-254,1.2306240345112132e-42,2.986690991747105e-33,1.495276264287167e-19,1.1447284865100011e-24,1.144727421821158e-24,1.4952762642872424e-19,2.4737074963270268e-161,-1.6745940627583462e-31,1.581359217245713e-33,-1.1384430111053064e-30,4.7819155378249946e-18,-9.317649799305768e-32,1.495276264287167e-19,-1.0479934044818189e-30,1.144728566237377e-24,1.1447285648327656e-24,-1.04799340412654e-30,4.7819143930964334e-18,1.4952762642864294e-19,1.4952762642864022e-19,-1.0477341459780744e-30,-8.773185041518173e-32,4.781914393096434e-18,4.931443164252502e-18],[0,0,-1.471260887348852e-196,3.3862414478582234e-25,0,-1.7241946643227313e-41,3.5074890340231214e-33,1.0852221800585157e-45,-1.2807216787571745e-32,8.003826279705186e-32,3.386240980587494e-25,0,3.165240412559774e-39,5.55913244820022e-40,1.0132830743295305e-28,3.3852280717866434e-25,-9.299728309435543e-33,-4.672707226873974e-32,-1.7240861432255856e-41,2.401145860800863e-32,8.003826235144567e-32,1.0310851842307309e-88,3.896270994195831e-45,-1.2807216786126317e-32,1.0140483819995728e-28,3.331118691746552e-32,4.47046630188473e-40,3.386242155243564e-25,0,2.6019585685334267e-199,2.4751948881523458e-62,-1.2807217360726935e-32,7.941168462618614e-278,-6.613874772582687e-48,1.0132479993996792e-28,3.3852281998588224e-25,-4.67270685475861e-32,-1.2807212948157485e-32,3.3852290353163047e-25,4.284580009013752e-173,2.0503969573980521e-32,3.507489034027019e-33,-1.280721745232246e-32,3.1652667428866474e-39,-1.2807216540321687e-32,3.3862414478582165e-25,-1.10281810853801e-40,1.0132479994313315e-28,3.507492737934833e-33,-1.1030315964258123e-40,3.5074890354646415e-33,3.385228532970686e-25,3.385227732588102e-25,1.013247999398576e-28,6.723104184274551e-32,7.859224382799742e-40,3.3862416879728466e-25],[0,0,-6.0926489671552774e-167,1.0335416506670745e-18,0,8.587563432960898e-33,4.48160692596525e-16,3.932136690983215e-22,-1.318711039967517e-22,7.107697891447436e-12,-7.107984987830725e-17,0,4.86387925463821e-18,2.8498487970344787e-25,4.549213583583098e-16,1.0349379551964276e-18,4.481609541114118e-16,-7.401017757535891e-17,3.9321712429909006e-22,7.108068069275435e-12,7.107697892975611e-12,9.998685189346233e-87,8.894025431291511e-19,2.7864499389891774e-18,7.107694922825942e-12,7.107619018918781e-12,1.896786334824604e-18,7.108148980807291e-12,0,1.6417257763232027e-177,1.9851260899676728e-29,1.3963045294031374e-21,2.956292489236786e-240,-1.6172520848131737e-39,-5.103745805460066e-32,1.0350708535768423e-18,-6.914629803921081e-17,4.865275844132691e-18,7.108143112733893e-12,6.322480751910213e-166,7.107619017258161e-12,4.490516236002725e-16,2.7845279762617874e-18,4.865800928925588e-18,1.895125436607667e-18,1.0335416506670754e-18,-5.962980591005204e-32,5.753281797767369e-18,4.53024572136148e-16,8.894025431290945e-19,4.500563433994156e-16,7.1076200524608886e-12,-7.297663592469174e-17,3.455197557684244e-27,7.107693027436197e-12,1.8956512636723174e-18,7.108075861954215e-12],[0,0,5.435301268928644e-164,-2.9418027282606135e-8,0,-6.962357996611082e-26,-2.0784573527347355e-7,-1.1058606642126865e-13,2.413390970599214e-12,-3.8271791240242965e-8,-8.64093713409638e-8,0,-3.4457969752979373e-9,-7.235316737060117e-17,-2.682844641127257e-7,-2.9415614945236408e-8,-2.0784343239621617e-7,1.5878024642015117e-12,-1.1058609273965176e-13,-2.4266783991867985e-7,-3.827179229542553e-8,-9.868089513270488e-76,-4.80027105340539e-18,-5.699062906232364e-8,-9.181892492906768e-8,-3.482440751766339e-8,-5.6992931934725746e-8,-3.3252607100251025e-7,0,-1.0370593453690414e-168,-6.915464839096182e-18,2.412335816680655e-12,-1.3964735692584848e-238,-2.8645434162747335e-20,-1.1166455372663968e-24,-2.9418028480884703e-8,-3.4442092382164745e-9,-3.4433847064720013e-9,-2.720897579448899e-7,-8.995112041680614e-148,-3.4821992926806216e-8,-2.0784573640580956e-7,-5.699051727637064e-8,-3.4459086889000896e-9,-5.699051728009384e-8,-2.9418027281081737e-8,-2.864537593960229e-20,-3.4457969800982087e-9,-2.1129153232112457e-7,-4.8002709942150096e-18,-2.6483877659443416e-7,-6.424243480563195e-8,-2.941643948014193e-8,-5.496482113263933e-20,-3.4823580729296744e-8,-5.699304132948404e-8,-3.3252459498383126e-7],[0,0,5.581580741639586e-164,-2.92989953848473e-11,0,-1.4070439082581934e-26,-5.224017897132559e-13,-3.451235139505915e-15,1.7392691585980154e-13,-9.17038754032415e-11,-3.057234180624041e-11,0,-8.572082190383366e-11,-2.951013500015703e-15,-8.756748198932582e-11,-2.9122117454766206e-11,-3.4897509549720997e-13,5.0911872855035586e-14,-3.451235143765705e-15,-6.332500247512949e-12,-9.170093388636573e-11,-2.936296955215785e-76,-5.4325042338715974e-14,-1.2081076566362136e-12,-7.304370278231297e-12,-5.929200109677023e-12,-1.3271998119291399e-12,-1.226697114793205e-10,0,-1.0699429247796034e-170,-5.281166838637505e-20,1.768779293199795e-13,-2.0802989721199474e-244,-9.4965844093279e-18,-1.642688698989318e-26,-2.930193690104588e-11,-8.567285149507831e-11,-8.554689493596316e-11,-3.5858775662782676e-11,-7.036405874277498e-145,-5.7523221802731075e-12,-5.767363286762194e-13,-1.2017054079526084e-12,-8.572428263559743e-11,-1.1473899157753292e-12,-2.929900488067058e-11,-9.496584409332144e-18,-8.577514694617238e-11,-8.624617470704692e-11,-5.432504233871614e-14,-1.8501113198264575e-12,-3.522819554657913e-11,-2.924808351199225e-11,-9.49658867131537e-18,-5.803234053136682e-12,-1.3277190802789318e-12,-1.226795268446676e-10],[0,0,4.579780088202334e-161,-3.0662550155848987e-10,0,-2.7392563000111094e-24,-5.777002055510816e-9,-3.0976145778349173e-14,-1.6117148951473894e-12,-4.031923708864054e-8,-7.137759443578784e-9,0,-4.0117389840303796e-8,-1.6122980482615095e-12,-5.27255287277737e-8,-3.066249184334838e-10,-5.777032448504371e-9,2.8898581523523098e-15,-3.097614605715029e-14,-5.9772783590646e-9,-4.0317624790660334e-8,-3.2355399481376306e-80,-1.385006180638064e-14,-6.832793373021457e-9,-7.031371782179982e-9,-2.0023206049839402e-10,-6.832749129966474e-9,-5.3232388597841844e-8,0,-7.742757123334726e-170,-1.481308214576319e-18,5.83085288685758e-16,-4.3944134523523237e-243,-2.005804063359248e-22,-2.9133534223610324e-24,-3.0823779963554715e-10,-4.011899924701205e-8,-4.0119001553825174e-8,-6.2854886540158344e-9,-6.997172757342874e-147,-2.002314772771757e-10,-5.77701590564068e-9,-6.831150098759312e-9,-4.011742081651762e-8,-6.831136250219071e-9,-3.066255015189984e-10,-2.237075844937317e-22,-4.01174036903656e-8,-4.5896004193862877e-8,-1.3850061803735008e-14,-1.2608169863507188e-8,-5.068575634993909e-10,-3.0662261170036515e-10,-5.005496523038125e-22,-2.0023436713650066e-10,-6.831167809518884e-9,-5.323404283082577e-8],[0,0,7.247171577637517e-166,-0.00001066659882897537,0,-3.224820889176543e-23,-6.270603498309973e-8,-8.756680022411875e-14,1.1583498628866592e-11,-1.7626994168851972e-8,-0.000010672352724423026,0,-2.403411812929622e-12,-2.4547344604680955e-19,-7.269266266217263e-8,-0.00001066658724546791,-6.269453905109382e-8,4.230328745390944e-9,-8.762377264907762e-14,-7.608880520369236e-8,-1.7626994168611792e-8,-3.362582144814651e-73,-4.141190586307141e-15,-9.972732524935742e-9,-2.760881502404827e-8,-1.3394262011407919e-8,-9.984224258846824e-9,-0.000010756904498943842,0,-4.192920827133813e-169,-3.2678007381816543e-21,1.1583498869066221e-11,-3.292422528300531e-238,-7.062791276840149e-24,-7.495322320836922e-21,-0.000010666598828967098,4.2279253903028245e-9,9.180078231035695e-12,-0.000010746929458905146,-1.7413199602255352e-149,-1.3382678455555882e-8,-6.270603912430107e-8,-9.972644900912377e-9,-2.490978618450016e-12,-9.972640825274938e-9,-0.000010666598828966787,-2.2456379592538314e-23,-2.4075530110112517e-12,-6.270843839515812e-8,-4.141196034434978e-15,-7.269034680849605e-8,-0.000010679993090978259,-0.000010662368500229966,-5.697446236132941e-17,-1.761300725798749e-8,-9.984311891017757e-9,-0.000010752674261849717],[0,0,2.2639848852285415e-163,-1.4633625303874978e-7,0,-2.5950715827099068e-24,-1.5919466075415633e-8,-3.230028738158228e-14,4.3278485570595684e-9,-0.00013193338846666515,-1.462978804798002e-7,0,-2.006440008349504e-8,-2.0570958895701985e-16,-3.598684586132611e-8,-1.4200840427501709e-7,-1.1591649613093306e-8,4.135225890443147e-11,-3.2300635415094025e-14,-0.00013192487436398403,-0.00013193338846645986,-1.8883372301347625e-76,-2.534758643258401e-16,4.324836301668905e-9,-0.00013191332704607877,-0.00013191328271411747,-2.979906594612382e-12,-0.0001320913193165152,0,-3.2088241679586675e-170,-2.192101842048846e-18,4.327848762756123e-9,-8.616723983669803e-240,-3.943459363900765e-19,-5.49730052520488e-23,-1.4633625324326094e-7,-2.002304802736571e-8,-1.5736551525232934e-8,-0.00013207557978594668,-2.2250177416367035e-147,-0.00013190895486535432,-1.5919466329298913e-8,4.324868808026942e-9,-2.0064432384189815e-8,4.324869057591793e-9,-1.463362530381676e-7,-3.943598605047073e-19,-2.0064400336970957e-8,-3.5983866364620265e-8,-2.534758899883665e-16,-1.592247807696935e-8,-0.0001320596189671576,-1.462949007798453e-7,-7.424200883050647e-19,-0.00013190899621761374,-3.0120056242134253e-12,-0.00013209127799701325],[0,0,1.0082117017582329e-160,-0.000146191326037615,0,-1.4609352014094555e-21,-3.348855052320995e-11,-6.483258801229665e-13,9.662507791623723e-10,-0.00004101655494008359,-0.00014619181665774682,0,-6.172106574688871e-10,-5.205038537519634e-13,-2.014259065397614e-8,-0.00014619035926646272,9.326344066125764e-10,1.9001271266003543e-8,-6.483735611925587e-13,-0.00004099600330346014,-0.000041016554419711646,-6.615454782601386e-79,-7.858138136648167e-17,-1.8526289118711422e-8,-0.0000410354291002382,-0.00004099693593778817,-1.949241194866077e-8,-0.00018722643907214743,0,-7.114780773157647e-169,-6.321795677055581e-15,9.667711520344781e-10,-1.5293109797739929e-239,-9.24165211750597e-19,-1.526713240314088e-21,-0.00014619132655824867,1.838354647507837e-8,3.4904631225500897e-10,-0.00018720729724952686,-2.979260192933101e-146,-0.000040995969166326493,-3.348876101384673e-11,-1.8525120110316258e-8,-6.178591152548215e-10,-1.852512640238346e-8,-0.00014619132603761568,-9.24130504388866e-19,-6.172107360517955e-10,-6.51219711845849e-10,-7.858479057903821e-17,-1.9526028191152908e-8,-0.00018718826198172472,-0.000146172324766349,-4.8601822289034985e-17,-0.00004101497043764018,-1.9492546011281382e-8,-0.00018720743896355122],[0,0,4.0554730052877203e-171,-9.128898131498162e-11,0,-5.119629322917575e-27,-2.6111533199030477e-8,-1.8543566336580808e-16,1.818197199100348e-15,-2.5389509232413622e-11,-0.000004202977644254849,0,-1.4948199854842918e-12,-7.254664527474826e-24,-0.00000422899938900345,-9.128716543974565e-11,-2.6111531568311907e-8,5.702714710674182e-15,-1.8543566569268858e-16,-2.613542056048508e-8,-2.538951462521275e-11,-3.6821738040869293e-79,-2.481485063616936e-19,-0.000004202886359346806,-0.0000042029102556682875,-2.3888991925017784e-11,-0.00000420288636097932,-0.0000042291145708473514,0,-1.770816912370144e-173,-6.82818406807218e-27,1.8128043999759664e-15,-1.9298354021939975e-243,3.3259698957262045e-24,-6.488804179927101e-22,-9.12889856799343e-11,-1.4891172707752084e-12,-1.49301025127868e-12,-2.6226716874205482e-8,-5.817138798218763e-152,-2.388716833500272e-11,-2.6111533204671436e-8,-0.000004202886359155978,-1.4950108139540387e-12,-0.000004202886359158799,-9.128897824479449e-11,-1.9722603958922518e-27,-1.494820234281679e-12,-2.6113028019015972e-8,-2.481485064672211e-19,-0.000004228997894358393,-1.1517797221213846e-10,-9.12832785996254e-11,-6.512045406882017e-22,-2.389287309268744e-11,-0.000004202886361164476,-0.000004229114565335712],[0,0,-8.63090264588956e-187,1.138049451332015e-16,0,1.3589498095762909e-52,1.3452326972511392e-32,1.5537690873207408e-40,2.552226423766252e-33,2.5143754843849243e-33,1.1379897407284727e-16,0,3.9836999921708453e-38,2.5522341101943735e-33,2.2582260966027647e-30,1.1380494513320364e-16,1.3452319441448845e-32,-5.971060356470518e-21,1.55376872560162e-40,-5.971060354307325e-21,2.149483911996502e-30,2.1840476129926668e-94,2.5750778468503628e-34,2.2475581489657884e-30,9.529590139389674e-32,-5.971060354321035e-21,2.2472597283692723e-30,1.138049451332016e-16,0,3.8815200449957586e-195,8.394876979549697e-43,2.149480842593115e-30,4.323751658249915e-242,4.0920342882070317e-35,2.531519099502079e-35,1.1380494513320364e-16,-5.971060356468008e-21,2.152033116539486e-30,1.1380494513320367e-16,1.2180511465458614e-171,-5.971060356470515e-21,2.1632316053795085e-30,9.552506442080967e-32,2.1495218106146886e-30,9.530847698018376e-32,1.138049451332015e-16,4.0920342860759503e-35,2.828628127015973e-34,1.6004600919705687e-32,2.5750778466345894e-34,1.0871989145044075e-31,1.1379897407284718e-16,1.1379897407284503e-16,6.623553389897214e-35,3.0141936548276843e-36,9.530848482190585e-32,1.137989740728473e-16],[0,0,2.355364107940192e-160,-9.588317006094908e-8,0,-1.6937053924780173e-21,-1.6728555554991483e-8,-6.933258276950902e-14,1.3568926594961508e-9,-0.000027621274299825924,-0.0000014634848108468604,0,-9.22401733301176e-8,-1.402022673940638e-13,-0.0000014860705522953796,-9.452613741295863e-8,-1.5371592025861232e-8,9.500182598243427e-9,-6.933841643509515e-14,-0.00002753490539634587,-0.000027621274159847546,-1.3841686969886988e-76,-4.00824638045268e-16,-0.0000013757450004798499,-0.000028906135809479925,-0.000027519533803919187,-0.0000013771019636023723,-0.00002910963068190994,0,-7.520103845199026e-172,-6.350004757754212e-15,1.3570326378753312e-9,-6.215107297040407e-240,2.779939287407208e-23,-1.9201764626243333e-21,-9.588331047703843e-8,-8.274012457830359e-8,-9.08832745546198e-8,-0.00002764164584638223,-2.464803389258542e-145,-0.0000275181767708277,-1.672855617970482e-8,-0.0000013757447907152794,-9.22402428865886e-8,-0.0000013757447966804058,-9.588317005083249e-8,-1.3453464727956212e-24,-9.224017373094416e-8,-1.0896886908737647e-7,-4.008251217505084e-16,-0.000001393830448063791,-0.000027615416980320074,-8.638298746270328e-8,-5.8334097955963155e-18,-0.00002752767695343183,-0.0000013771018988748044,-0.000029100130703115424],[0,0,-9.584097553264455e-168,0.00002751238095083956,0,3.5945684961936874e-27,1.3493906529643234e-17,2.233401088052212e-19,-6.36017658711586e-12,8.63713864756099e-14,0.000027512292586552812,0,8.630257773573387e-14,7.308854220679526e-20,1.0591750819899574e-12,0.000027512374590662898,-6.360162942957762e-12,-8.933714575713418e-11,2.2467813500664096e-19,-9.569723806417432e-11,8.637131465157e-14,6.072279496789328e-82,1.899001801366706e-18,-5.387315453088276e-12,9.729277455893767e-13,-8.933707702021835e-11,9.72859083008764e-13,0.000027512375649906716,0,2.1341552850292313e-177,1.6581285710685132e-23,-6.360176659367326e-12,9.624314315870893e-247,4.27425642282195e-22,8.770684299136866e-27,0.000027512380950839633,-8.92508431080915e-11,-6.273874008559589e-12,0.000027512380950923764,6.463482931210925e-152,-9.569725368259786e-11,1.5394173269707263e-17,-5.387315751692027e-12,8.630280234034497e-14,-5.387317648912194e-12,0.00002751238095083956,4.27425634906628e-22,8.630447673754402e-14,8.631614473080571e-14,1.8990022377637906e-18,9.728727267572093e-13,0.00002751229161376254,0.0000275122916136938,1.7650206223023965e-21,-6.360107924125638e-12,9.728592346323212e-13,0.000027512286312763154],[0,0,6.527688284872434e-162,-0.0010652833058033748,0,-1.7913799257343125e-20,-3.6273342004917137e-12,-7.277210436073761e-19,5.565923546952277e-13,-4.4495939248820087e-11,-0.0010652839353947115,0,-4.333755127297913e-11,-6.836226887911966e-15,-6.771802551659065e-10,-0.001065283305239946,-3.0639063466297285e-12,6.240325658090504e-13,-7.277211206544086e-19,-3.591425917457009e-12,-4.448910304106381e-11,-1.1650586144881095e-77,-3.6855154924167723e-19,-6.296587783367656e-10,-6.31366921459787e-10,-5.275192022756187e-13,-6.30222205803311e-10,-0.0010652839835719147,0,-2.871371894784885e-172,-1.6177518295504674e-16,5.634285812165096e-13,-4.888946729594635e-242,-1.875825321470215e-20,-1.80132676149668e-20,-0.0010652833058102107,-4.272019314011649e-11,-4.2780797240608766e-11,-0.0010652833105889354,-7.080079677392111e-149,3.590937967422716e-14,-3.6273345881682576e-12,-6.296519413996971e-10,-4.333755201982518e-11,-6.296521029043277e-10,-0.0010652833058033746,-1.8751728890250897e-20,-4.333755165954396e-11,-4.697172170035877e-11,-3.6854491251275843e-19,-6.338427045230342e-10,-0.0010652833063310556,-0.001065283305179342,-1.8851274840664083e-20,-5.881232040488103e-13,-6.30215532231546e-10,-0.0010652839829545578],[0,0,-9.586572229917003e-181,0.000001705967948610172,0,1.6768011102869465e-28,8.035226673806065e-20,5.118363302268046e-33,-1.1014441028427762e-24,5.598436696680905e-16,0.0000017059679578668342,0,5.598435503717758e-16,1.8907632312448378e-34,9.816586023301024e-15,0.000001705967948610172,8.03511652940211e-20,-3.271028164063111e-23,5.117902984524035e-33,8.043775132413906e-20,5.598436696680961e-16,3.8272346011259834e-83,-8.476181230908713e-30,9.256662119548505e-15,9.25666223995882e-15,8.658603859413952e-23,9.256662120649956e-15,0.0000017059679584267581,0,7.224551641508654e-191,7.105243783231591e-39,-1.1014384551657581e-24,8.361865092193141e-250,-1.282345858388867e-36,6.071636102130184e-28,0.000001705967948610172,5.598435176614942e-16,5.598435492824518e-16,0.0000017059679486102526,1.9293491476238e-157,8.548458884361838e-23,8.035226673523215e-20,9.256662119548665e-15,5.598435503717816e-16,9.256662119560621e-15,0.000001705967948610172,-5.039102773690504e-35,5.598435503723746e-16,5.599239026385139e-16,-8.476233222180039e-30,9.256742472916688e-15,0.000001705967948610172,0.000001705967948610172,4.394836370196997e-28,1.1819503822254866e-22,9.256662120662233e-15,0.0000017059679584267581],[0,0,1.6708887355732314e-162,-6.412521625980763e-8,0,-6.296230925309302e-21,-1.1473330458635042e-9,-5.269752356327441e-13,9.264932287682995e-9,-4.15989071108841e-9,-1.5465113318281558e-7,0,-1.003627833542882e-10,-2.5926771934168764e-17,-9.179785795217696e-8,-5.486028394010999e-8,8.117072292510557e-9,2.4245187161087793e-11,-5.269755556362153e-13,4.081789173452025e-9,-4.15989068530602e-9,-7.031192234400595e-77,-4.0426787657094875e-16,-8.128575720886734e-8,-9.460969002462215e-8,-4.035282714790644e-9,-9.05501621426536e-8,-1.507176697941398e-7,0,-1.2107447240731419e-171,-1.4237285309112952e-20,9.264932313465389e-9,-6.587689909243898e-240,8.348609415399752e-24,-7.049364682307674e-21,-6.412521627964031e-8,-7.611762178573506e-11,9.164569497967078e-9,-6.933207763189108e-8,-1.5267478390956295e-149,5.229649599283503e-9,-1.1473334502757815e-9,-8.128523020724686e-8,-1.0088975873430152e-10,-8.128522980953841e-8,-6.412521625356984e-8,-3.488447635348289e-24,-1.0036318762921413e-10,-1.2476958551445643e-9,-4.042678959188219e-16,-9.169802213768158e-8,-6.816049896837405e-8,-6.410097107263948e-8,-3.2074019723937003e-19,5.20540441179604e-9,-9.05506890983902e-8,-1.506939520122191e-7],[0,0,-7.687259467690946e-195,-5.501737032615651e-35,0,5.796855743818786e-45,1.3174152987335555e-21,7.466862439489519e-18,-1.1523762375117096e-21,8.341086911634494e-21,1.0839570947539392e-23,0,8.340939765286385e-21,4.086463773787952e-36,9.669195160447111e-21,-1.1415361508452864e-21,7.467027478559399e-18,-5.168223197642213e-28,7.466862439489519e-18,7.467038465277311e-18,8.351926998300795e-21,8.190761832874547e-95,1.721492854180438e-30,7.465720903341501e-18,1.4715610896597925e-25,1.0986716192089068e-23,1.0840087769742076e-23,8.506125982617315e-21,0,9.476297331344904e-176,1.520069496014692e-42,-1.1415361508454078e-21,1.2907679983830167e-241,-1.7636004767357347e-34,-1.1520831706679493e-43,1.0840095324039118e-23,8.340939248463891e-21,7.199403614440805e-21,1.3284025421270141e-21,1.0082886462900905e-164,-1.1522296079859311e-21,1.3282553871213548e-21,-1.1523762346867814e-21,7.47521421934147e-18,-1.1523762364082812e-21,1.2875009308805627e-34,7.420952207987125e-36,8.340939767007879e-21,9.658355064019945e-21,1.7214928511495453e-30,7.468179854789354e-18,1.0986724849818073e-23,-5.1682219829923865e-28,7.727584872891164e-36,-1.1522290825061724e-21,7.466862439499278e-18,7.4753794050437e-18],[0,0,9.87940335544356e-161,-1.0683365139331835e-10,0,-2.71604068720004e-24,-2.3274219167375485e-8,-9.659393516115255e-15,2.195500140544756e-13,-2.0349395354903967e-11,-1.1851808158429884e-7,0,-1.3979630887554938e-12,-2.6229300051009316e-14,-1.4168688695441526e-7,-1.0658787207380282e-10,-2.3273983047455003e-8,2.1891034520557458e-14,-9.659393516180189e-15,-2.3292886360575046e-8,-2.0323166054878486e-11,-1.6174755462324814e-84,-1.1884370989149059e-18,-1.184110599345134e-7,-1.184301950269171e-7,-1.8903311931602435e-11,-1.1841129605324554e-7,-1.4181240159638528e-7,0,-4.805836040774246e-167,-1.5669301420059784e-15,2.457793140815933e-13,-4.4924958505605036e-244,-1.6374928651933234e-24,-2.7160495765931064e-24,-1.0685988068806335e-10,-1.4007344241422359e-12,-1.1768461500168503e-12,-2.3400002685287945e-8,-3.636782280303234e-147,-1.8657532617472996e-11,-2.3274219168563945e-8,-1.1841102404581979e-7,-1.4076224822971392e-12,-1.1841102561156693e-7,-1.0683365138788333e-10,-1.6383940963310614e-24,-1.3979642771953085e-12,-2.327564335976429e-8,-1.1884370993142765e-18,-1.4168549865071447e-7,-1.2573853024973453e-10,-1.0681176035879508e-10,-1.702941239265721e-24,-1.8679423652104728e-11,-1.1841128105027469e-7,-1.4181241402830262e-7],[0,0,-9.299185464001913e-180,4.292516501692664e-15,0,7.926487789094297e-26,2.1179047757250967e-21,1.3183277787813909e-30,7.222356496385208e-28,7.034695963526346e-16,5.6678510419126885e-15,0,7.034660700129781e-16,7.222357261294415e-28,2.0788027444540787e-15,4.292516501695384e-15,2.1179047770433626e-21,-1.6233915024175188e-23,1.3183277745792708e-30,5.628018472067843e-21,7.034695963575417e-16,2.5234708502208814e-88,3.046584923389469e-27,1.3753345565371858e-15,1.37533808286963e-15,3.510110648439554e-21,1.375334556534138e-15,6.371322772477139e-15,0,2.480244808084397e-177,8.247252113418584e-32,5.629211154981058e-27,2.426780173038096e-256,1.3179810164325096e-33,8.196283800455953e-26,4.292516501616841e-15,7.034660537797853e-16,7.034660700195408e-16,4.2925221459428625e-15,5.114782369115106e-148,3.510105019228279e-21,2.1179134515225555e-21,1.3753345566100976e-15,7.034660700186087e-16,1.3753345565279977e-15,4.292516501613188e-15,-2.215962520776074e-32,7.034660700979877e-16,7.034681879184762e-16,3.0465614428369503e-27,1.3753366744325635e-15,4.292520011721138e-15,4.2925164853767864e-15,2.697937970481922e-27,3.5264181991303436e-21,1.375334556607264e-15,6.371322756252623e-15],[0,0,-1.1842211960389836e-161,2.4793414691430043e-11,0,1.8990344866379985e-25,2.167416696280618e-13,3.2686660644791597e-21,-3.4340084332386225e-17,9.534007049295e-12,1.8407339534263797e-9,0,1.7747282972820954e-12,2.044763860330541e-19,1.8179321380592862e-9,2.4793380115616736e-11,2.1670712833748934e-13,-1.2929491933022113e-16,3.2725330449733636e-21,7.97586205032736e-12,9.534006850100641e-12,1.0855481962467859e-75,5.664090653080113e-18,1.8159406393884e-9,1.8236999466451933e-9,7.759149257899217e-12,1.815940668260316e-9,1.8504847967292198e-9,0,1.5774311634379727e-171,1.4964457268440126e-21,-3.454456007357889e-17,5.403562739185649e-245,5.2813811573971605e-21,5.403006414174089e-24,2.479341485937375e-11,1.7745992000574542e-12,1.7746939869499827e-12,3.2769440744417974e-11,1.4487777659365258e-150,7.759114713333985e-12,2.1674733900074258e-13,1.8159406391806507e-9,1.7747283058327888e-12,1.8159406335545896e-9,2.4793414665463215e-11,5.281382744963482e-21,1.7747339613781514e-12,1.991470171386543e-12,5.664090653210084e-18,1.816157409734017e-9,3.2552563919573766e-11,2.4793285396505313e-11,5.2904627370655926e-21,7.759244008258853e-12,1.8159406681024205e-9,1.8504846733046363e-9],[0,0,-2.1393372211719556e-183,5.111908697262945e-27,0,-9.343192847071938e-44,1.1549495396501069e-14,1.3630201204851924e-33,-3.242211796617838e-21,9.049172253549016e-13,5.329572909283664e-27,0,9.049171487316625e-13,7.622946997136753e-20,9.164666441281638e-13,-7.9471676505913e-20,1.15494159248193e-14,-5.8554361207707105e-33,1.363020120625723e-33,1.1549416318594597e-14,9.049171491254379e-13,2.214600436713411e-85,2.4736579353915723e-43,-3.2422115796166215e-21,3.937752143191712e-22,3.93775296890394e-22,7.622946416545373e-20,9.164665650502621e-13,0,5.143549168530669e-172,2.5810652912101703e-29,-7.947168161849191e-20,2.8309967588781996e-261,6.022241228315589e-27,6.390237584990841e-44,7.622946921060646e-20,9.049172249611265e-13,9.049171454894509e-13,1.1549572019745398e-14,3.851765835246451e-159,-7.907790662058844e-20,1.154949539650724e-14,-7.947168170047898e-20,9.049171487316687e-13,-7.947167565175241e-20,1.1135492580237316e-26,6.022913671181843e-27,9.049171487316625e-13,9.164667203576336e-13,-2.431674940207927e-41,1.1549495396501136e-14,3.9378043536017803e-22,5.112575282531489e-27,6.022913671181844e-27,-7.90779066211748e-20,6.116314519507678e-27,9.164666412797322e-13],[0,0,-8.095050501921005e-174,2.403361619191918e-13,0,8.507464435995353e-31,4.4609048923744377e-10,1.9228206036719657e-30,-8.59576425049128e-24,1.5876614976205214e-12,2.4680044270476775e-13,0,1.587653227842608e-12,9.681800196941443e-30,4.4768460776555884e-10,2.4033616174729636e-13,4.460904892374387e-10,-1.0191569120998547e-18,2.139601634112511e-30,4.460904964880335e-10,1.5876614976205214e-12,1.26880561789859e-84,-2.6137984175791995e-23,6.465300070995582e-15,6.4735700504436956e-15,7.250621001537261e-18,6.465300105729337e-15,4.479249521970841e-10,0,1.951989118661276e-184,9.004674690802417e-30,-8.5955980912488e-24,6.869525418706065e-252,1.3070411914706426e-31,5.859779562735787e-26,2.403361617593933e-13,1.5876522086856958e-12,1.5876532279972537e-12,4.4633083366895493e-10,7.55104640489999e-155,7.25061240558799e-18,4.460904892374176e-10,6.465300070995395e-15,1.587653227842608e-12,6.465300260374665e-15,2.4033616175595055e-13,1.597755155360969e-31,1.5876532278165284e-12,4.4767814246528643e-10,-2.6137984178552235e-23,4.460969545375495e-10,2.403434123803947e-13,2.4033514276222113e-13,5.85976809909747e-26,8.269772818897885e-18,6.465300272471651e-15,4.47924951177901e-10],[0,0,-7.496780917832572e-176,5.77842355841533e-42,0,7.10581704010262e-46,5.226249663017647e-30,6.607015348689297e-18,7.021351522678271e-31,7.651516581665382e-30,-3.747057182781358e-22,0,5.419030480449555e-38,7.021351564411969e-31,5.998252886212437e-30,-3.984962577958627e-39,6.607015348694523e-18,-3.747050192814236e-22,6.607015349389066e-18,6.606640643683849e-18,7.651516581665112e-30,1.987745047189101e-102,9.552797308243332e-31,6.607015349391496e-18,8.423519696294876e-30,-3.7470501162990705e-22,7.7200316876911176e-31,7.1341848483999345e-28,0,3.945100645035983e-190,2.9787773539702316e-49,-4.1724486835577526e-39,8.572136117628895e-244,7.0213515644000635e-31,7.110273114334687e-46,5.185722302555959e-41,-3.747057190501146e-22,7.021352066452569e-31,7.136017371273901e-28,3.061032778951305e-155,-3.747057113986224e-22,6.883688775104914e-30,1.727282939844885e-30,6.607015348689998e-18,7.012428295270615e-28,7.021352008663122e-31,7.02135200863243e-31,9.552797851999759e-31,5.928384873649148e-30,9.553039554628446e-31,6.607015348695295e-18,-3.7470501162990705e-22,-3.747050192814478e-22,7.004708264068846e-28,7.651516567774114e-30,6.60701534939054e-18,6.606640643685323e-18],[0,0,0,0,0,0,0,0,0,0,0,0,0,0,0,0,0,0,0,0,0,0,0,0,0,0,0,0,0,0,0,0,0,0,0,0,0,0,0,0,0,0,0,0,0,0,0,0,0,0,0,0,0,0,0,0,0]],"LastChangeOutput":[[-3.339790996972812e-11,-0.000002377033042329582,6.1455679828369015e-12,-9.00827545410365e-7,-9.631650420457039e-14,-4.3409009049216436e-7,-7.792100405655351e-13,-5.012966346656815e-7,-2.4478594623115188e-17,-0.0000013163429552398694,-6.307448056235028e-7,-0.0000051946215873745265,3.3837229091760803e-14,2.246914749370633e-19,-6.781460328312312e-27,-6.032252978982527e-13,-8.790744433500036e-10,-4.759930843243207e-13,1.1148382354345832e-10,-2.1831283836275303e-7,-0.000002262628371195878,-0.000003000105217195077,1.5410574832198493e-8,-2.2914126878731045e-18,-4.0977628237058313e-7,-3.7571104667769884e-7,-0.000012944810093787578,-2.0075863333158086e-8,-1.1034282578551352e-9,3.062571588006627e-19,4.779603099635202e-10,-7.200915944335297e-17,3.880726280306438e-12,1.67123084304878e-15,3.336893498467472e-13,2.666339587090638e-19,-0.0005673433620770275],[2.548999637448365e-9,0.0001517813408084932,2.733688610085638e-9,0.000059954554290808906,6.093512976762073e-12,0.00002854604164547687,4.930704700093365e-11,0.00003782750869381485,1.5239659191262243e-15,0.00010163192132145148,0.0000398716890875797,0.00032854874882995097,5.061821089637884e-11,1.2631988165976596e-18,4.286684365640654e-25,4.5062371940362847e-11,4.0262121582031854e-7,1.262976067814207e-10,6.097824490834395e-8,0.000013891638893651943,0.00016902479906077557,0.00019717614734666763,0.000005950247903046053,1.4484033934947043e-16,0.00003201441656756498,0.000023749661017435784,0.0008182775888059293,0.0000012690505758765495,1.7572511935957208e-7,1.3843000707633408e-18,2.0840297841379853e-7,6.927921950808621e-15,1.7399046395551184e-9,8.027115945127133e-13,3.818477021550957e-10,1.1976459591958823e-18,0.037416145958956856],[-3.8411155149587007e-10,-0.0000075804421097637565,1.2668904991238323e-10,-0.000004694841327739379,-2.6842872936572005e-13,-0.0000013926060620498652,-2.171205914600021e-12,-0.000005768184057587034,-6.281137063639832e-17,-0.000015120428514141572,-0.0000017594070864238721,-0.00001461178959580364,1.8169802533502868e-12,2.9055182413492874e-18,-1.8858607087402387e-26,-6.953827690378626e-12,2.346649087576333e-10,1.9105988743326625e-12,2.8133764889452868e-9,-6.095696644470415e-7,-0.000026060594314874116,-0.00001409255577902017,2.786106756758744e-7,-6.3906869749296765e-18,-0.000004690439098404623,-0.0000010478721180683058,-0.00003610359597241357,-5.599241759972295e-8,-1.63269091153545e-11,3.909531911291216e-18,9.044417563407559e-9,-1.1533752376444877e-16,7.7325246040325e-11,4.06220493656866e-14,1.0118564341188993e-11,3.4035448248813655e-18,-0.002036071936329728],[-2.131490175982765e-9,-0.00014182386565639947,-2.866523227980857e-9,-0.000054358885417659035,-5.728767743191767e-12,-0.000026719345492934767,-4.6356631045767964e-11,-0.00003155802800156211,-1.4366759538667065e-15,-0.00008519514985206993,-0.00003748153719553222,-0.0003087423376467719,-5.246902837882086e-11,-4.393408532884011e-18,-4.030283691483496e-25,-3.7505318952085945e-11,-4.01976806285726e-7,-1.277322125714289e-10,-6.390310522083266e-8,-0.000013063756390842113,-0.00014070157637470544,-0.00018008348635045193,-0.000006244269153554125,-1.3615823968666728e-16,-0.000026914201186789742,-0.000022326077852689718,-0.0007692291827397259,-0.000001192982294943665,-1.7460536419260133e-7,-5.6000891408552214e-18,-2.179253562871696e-7,-6.740575267600805e-15,-1.8211106118757495e-9,-8.450048747214482e-13,-3.922999558461313e-10,-4.867824742786313e-18,-0.03481273066055001]],"Regression":true,"Rate1":0.25,"Rate2":0.1}
